// // unsigned char cpr_training_model[] = {
// //   0x1c, 0x00, 0x00, 0x00, 0x54, 0x46, 0x4c, 0x33, 0x14, 0x00, 0x20, 0x00,
// //   0x1c, 0x00, 0x18, 0x00, 0x14, 0x00, 0x10, 0x00, 0x0c, 0x00, 0x00, 0x00,
// //   0x08, 0x00, 0x04, 0x00, 0x14, 0x00, 0x00, 0x00, 0x1c, 0x00, 0x00, 0x00,
// //   0x84, 0x00, 0x00, 0x00, 0xdc, 0x00, 0x00, 0x00, 0x14, 0x07, 0x00, 0x00,
// //   0x24, 0x07, 0x00, 0x00, 0x1c, 0x10, 0x00, 0x00, 0x03, 0x00, 0x00, 0x00,
// //   0x01, 0x00, 0x00, 0x00, 0x04, 0x00, 0x00, 0x00, 0x9a, 0xf8, 0xff, 0xff,
// //   0x0c, 0x00, 0x00, 0x00, 0x1c, 0x00, 0x00, 0x00, 0x3c, 0x00, 0x00, 0x00,
// //   0x0f, 0x00, 0x00, 0x00, 0x73, 0x65, 0x72, 0x76, 0x69, 0x6e, 0x67, 0x5f,
// //   0x64, 0x65, 0x66, 0x61, 0x75, 0x6c, 0x74, 0x00, 0x01, 0x00, 0x00, 0x00,
// //   0x04, 0x00, 0x00, 0x00, 0x98, 0xff, 0xff, 0xff, 0x0d, 0x00, 0x00, 0x00,
// //   0x04, 0x00, 0x00, 0x00, 0x08, 0x00, 0x00, 0x00, 0x6f, 0x75, 0x74, 0x70,
// //   0x75, 0x74, 0x5f, 0x30, 0x00, 0x00, 0x00, 0x00, 0x01, 0x00, 0x00, 0x00,
// //   0x04, 0x00, 0x00, 0x00, 0x5e, 0xfa, 0xff, 0xff, 0x04, 0x00, 0x00, 0x00,
// //   0x06, 0x00, 0x00, 0x00, 0x61, 0x72, 0x67, 0x73, 0x5f, 0x30, 0x00, 0x00,
// //   0x02, 0x00, 0x00, 0x00, 0x34, 0x00, 0x00, 0x00, 0x04, 0x00, 0x00, 0x00,
// //   0xdc, 0xff, 0xff, 0xff, 0x10, 0x00, 0x00, 0x00, 0x04, 0x00, 0x00, 0x00,
// //   0x13, 0x00, 0x00, 0x00, 0x43, 0x4f, 0x4e, 0x56, 0x45, 0x52, 0x53, 0x49,
// //   0x4f, 0x4e, 0x5f, 0x4d, 0x45, 0x54, 0x41, 0x44, 0x41, 0x54, 0x41, 0x00,
// //   0x08, 0x00, 0x0c, 0x00, 0x08, 0x00, 0x04, 0x00, 0x08, 0x00, 0x00, 0x00,
// //   0x0f, 0x00, 0x00, 0x00, 0x04, 0x00, 0x00, 0x00, 0x13, 0x00, 0x00, 0x00,
// //   0x6d, 0x69, 0x6e, 0x5f, 0x72, 0x75, 0x6e, 0x74, 0x69, 0x6d, 0x65, 0x5f,
// //   0x76, 0x65, 0x72, 0x73, 0x69, 0x6f, 0x6e, 0x00, 0x11, 0x00, 0x00, 0x00,
// //   0x34, 0x06, 0x00, 0x00, 0x2c, 0x06, 0x00, 0x00, 0x2c, 0x05, 0x00, 0x00,
// //   0xd4, 0x03, 0x00, 0x00, 0x84, 0x02, 0x00, 0x00, 0x4c, 0x02, 0x00, 0x00,
// //   0x1c, 0x02, 0x00, 0x00, 0xe4, 0x01, 0x00, 0x00, 0xbc, 0x01, 0x00, 0x00,
// //   0xbc, 0x00, 0x00, 0x00, 0xb4, 0x00, 0x00, 0x00, 0xac, 0x00, 0x00, 0x00,
// //   0xa4, 0x00, 0x00, 0x00, 0x9c, 0x00, 0x00, 0x00, 0x94, 0x00, 0x00, 0x00,
// //   0x74, 0x00, 0x00, 0x00, 0x04, 0x00, 0x00, 0x00, 0x16, 0xfb, 0xff, 0xff,
// //   0x04, 0x00, 0x00, 0x00, 0x60, 0x00, 0x00, 0x00, 0x10, 0x00, 0x00, 0x00,
// //   0x00, 0x00, 0x00, 0x00, 0x08, 0x00, 0x0e, 0x00, 0x08, 0x00, 0x04, 0x00,
// //   0x08, 0x00, 0x00, 0x00, 0x10, 0x00, 0x00, 0x00, 0x24, 0x00, 0x00, 0x00,
// //   0x00, 0x00, 0x06, 0x00, 0x08, 0x00, 0x04, 0x00, 0x06, 0x00, 0x00, 0x00,
// //   0x04, 0x00, 0x00, 0x00, 0x00, 0x00, 0x00, 0x00, 0x0c, 0x00, 0x18, 0x00,
// //   0x14, 0x00, 0x10, 0x00, 0x0c, 0x00, 0x04, 0x00, 0x0c, 0x00, 0x00, 0x00,
// //   0xda, 0xa3, 0xe0, 0x1b, 0x7b, 0x81, 0x8e, 0xa2, 0x01, 0x00, 0x00, 0x00,
// //   0x02, 0x00, 0x00, 0x00, 0x04, 0x00, 0x00, 0x00, 0x06, 0x00, 0x00, 0x00,
// //   0x32, 0x2e, 0x31, 0x39, 0x2e, 0x30, 0x00, 0x00, 0x82, 0xfb, 0xff, 0xff,
// //   0x04, 0x00, 0x00, 0x00, 0x10, 0x00, 0x00, 0x00, 0x32, 0x2e, 0x30, 0x2e,
// //   0x30, 0x00, 0x00, 0x00, 0x00, 0x00, 0x00, 0x00, 0x00, 0x00, 0x00, 0x00,
// //   0xbc, 0xf1, 0xff, 0xff, 0xc0, 0xf1, 0xff, 0xff, 0xc4, 0xf1, 0xff, 0xff,
// //   0xc8, 0xf1, 0xff, 0xff, 0xcc, 0xf1, 0xff, 0xff, 0xb2, 0xfb, 0xff, 0xff,
// //   0x04, 0x00, 0x00, 0x00, 0xf0, 0x00, 0x00, 0x00, 0xf4, 0xc9, 0xa6, 0x3e,
// //   0x59, 0xd4, 0x97, 0x3e, 0xcd, 0x2a, 0xc0, 0xbe, 0xdc, 0x84, 0x13, 0x3f,
// //   0x61, 0x82, 0x07, 0xbf, 0xba, 0x3e, 0x89, 0x3f, 0xc6, 0xef, 0x78, 0xbe,
// //   0x31, 0xa5, 0x1f, 0xbe, 0x6e, 0xee, 0xa7, 0x3e, 0x4b, 0x63, 0xa7, 0x3b,
// //   0xde, 0x40, 0x5a, 0x3f, 0xea, 0xae, 0xd6, 0x3e, 0xfa, 0xe8, 0xfb, 0x3e,
// //   0xc6, 0x4c, 0x0c, 0xbf, 0xda, 0xcc, 0xb8, 0xbe, 0x00, 0x42, 0x26, 0xbd,
// //   0x9b, 0x6e, 0x8c, 0xbe, 0xc5, 0xa1, 0x0c, 0xbf, 0x27, 0xb7, 0xd2, 0xbe,
// //   0xd2, 0x86, 0xe5, 0x3e, 0xba, 0x67, 0xce, 0xbe, 0x62, 0xc0, 0x72, 0xbe,
// //   0xc0, 0xc5, 0xd8, 0xbd, 0xc5, 0x05, 0x23, 0x3e, 0x90, 0xfa, 0xb5, 0xba,
// //   0xf6, 0xe7, 0x8f, 0xbe, 0xf6, 0xe1, 0x1d, 0xbe, 0x7b, 0xc0, 0xc4, 0xba,
// //   0x7e, 0x8c, 0x9b, 0xbe, 0x56, 0xbb, 0xc3, 0x3c, 0x5c, 0xb0, 0x83, 0xbe,
// //   0x60, 0x74, 0x12, 0x3e, 0xf9, 0x24, 0x13, 0xbf, 0x3c, 0x1a, 0xa5, 0x3e,
// //   0xdf, 0xa0, 0x9b, 0x3d, 0xcf, 0xde, 0x77, 0xbe, 0x63, 0xbd, 0xca, 0x3e,
// //   0x42, 0xc9, 0xd9, 0xbd, 0x24, 0x48, 0xc4, 0xbe, 0xd4, 0xd4, 0xea, 0xbe,
// //   0x65, 0x69, 0x72, 0xbf, 0xd5, 0x12, 0x4c, 0x3f, 0x7c, 0x63, 0x0d, 0x3f,
// //   0x95, 0x3b, 0x54, 0xbe, 0x76, 0xac, 0x11, 0x3f, 0x13, 0xac, 0x30, 0xbf,
// //   0x68, 0x0a, 0xed, 0x3d, 0x20, 0x79, 0x81, 0x3e, 0x8c, 0xaf, 0x53, 0xbd,
// //   0x9a, 0x20, 0xc3, 0xbe, 0xd6, 0x12, 0x18, 0xbf, 0xc2, 0x38, 0x51, 0xbe,
// //   0x0f, 0x6a, 0x11, 0x3f, 0x45, 0x06, 0x80, 0xbe, 0xd5, 0x26, 0x00, 0x3f,
// //   0x7a, 0x29, 0x4d, 0xbd, 0x60, 0x49, 0x91, 0x3e, 0x8d, 0x43, 0x69, 0x3f,
// //   0xf1, 0x36, 0x5b, 0xbd, 0x51, 0xf2, 0x50, 0x3e, 0xae, 0xfc, 0xff, 0xff,
// //   0x04, 0x00, 0x00, 0x00, 0x18, 0x00, 0x00, 0x00, 0x8a, 0xc8, 0x87, 0x3b,
// //   0x46, 0x72, 0x0b, 0x3d, 0x80, 0x36, 0xbb, 0xba, 0x94, 0x99, 0xf3, 0x3c,
// //   0xea, 0xff, 0x65, 0x3f, 0xf2, 0x81, 0x32, 0xbf, 0xd2, 0xfc, 0xff, 0xff,
// //   0x04, 0x00, 0x00, 0x00, 0x28, 0x00, 0x00, 0x00, 0x25, 0x82, 0x3b, 0xbe,
// //   0x70, 0x61, 0xce, 0x3e, 0x31, 0x18, 0x31, 0xbe, 0x38, 0x56, 0xe8, 0x3c,
// //   0xba, 0x07, 0x4b, 0x3f, 0xbb, 0x92, 0xad, 0x3d, 0x21, 0xd0, 0x34, 0x3f,
// //   0xeb, 0x89, 0x18, 0x3f, 0x8c, 0xa3, 0x13, 0xbd, 0xd5, 0xe4, 0x73, 0xbe,
// //   0x06, 0xfd, 0xff, 0xff, 0x04, 0x00, 0x00, 0x00, 0x20, 0x00, 0x00, 0x00,
// //   0x52, 0xf2, 0x82, 0xbe, 0x0f, 0x80, 0x64, 0x3e, 0x2d, 0xd6, 0xd9, 0x3e,
// //   0x86, 0xe7, 0x07, 0xbe, 0x00, 0x00, 0x00, 0x00, 0x67, 0xc3, 0x85, 0x3d,
// //   0xef, 0x13, 0x27, 0xbe, 0x82, 0xf6, 0x26, 0xbd, 0x32, 0xfd, 0xff, 0xff,
// //   0x04, 0x00, 0x00, 0x00, 0x28, 0x00, 0x00, 0x00, 0xa9, 0xea, 0x02, 0x3e,
// //   0xa3, 0x90, 0x17, 0x3d, 0x00, 0x00, 0x00, 0x00, 0xe7, 0x9e, 0xb2, 0xbd,
// //   0x11, 0x98, 0xe2, 0xbd, 0x02, 0xa2, 0x02, 0xbe, 0xf2, 0xac, 0x87, 0x3d,
// //   0x98, 0x7e, 0xeb, 0x3d, 0x4e, 0x82, 0xff, 0xbc, 0xd4, 0x43, 0x46, 0x3e,
// //   0x66, 0xfd, 0xff, 0xff, 0x04, 0x00, 0x00, 0x00, 0x40, 0x01, 0x00, 0x00,
// //   0x47, 0x9a, 0x88, 0x3f, 0x13, 0xde, 0x05, 0x3f, 0x9c, 0x20, 0x68, 0x3e,
// //   0x62, 0x06, 0x8d, 0x3e, 0xac, 0xdc, 0x86, 0x3e, 0xbd, 0x58, 0x02, 0xbe,
// //   0x6c, 0xa6, 0x3e, 0x3f, 0x8e, 0xae, 0x0a, 0xbf, 0xb2, 0x40, 0xa7, 0x3e,
// //   0xaf, 0xba, 0x33, 0x3f, 0xb4, 0x32, 0x5f, 0x3f, 0x36, 0x4e, 0x75, 0xbf,
// //   0x3a, 0xee, 0xad, 0xbe, 0xc3, 0xba, 0x81, 0xbd, 0x2a, 0xc4, 0x27, 0xbe,
// //   0xbd, 0x46, 0x91, 0x3c, 0x97, 0x95, 0x9e, 0x3f, 0x66, 0x5b, 0x30, 0x3f,
// //   0x24, 0xbc, 0x88, 0x3c, 0x51, 0x3c, 0x05, 0x3f, 0xbb, 0x50, 0xac, 0x3d,
// //   0x47, 0xb6, 0x07, 0xbf, 0xc0, 0x86, 0xf1, 0xbe, 0xe3, 0x69, 0xc3, 0x3e,
// //   0x9c, 0x8b, 0x12, 0xbf, 0xf4, 0x8d, 0xc1, 0xbe, 0x6f, 0xa8, 0xb9, 0xbe,
// //   0x82, 0xb3, 0x0a, 0xbf, 0xef, 0x3e, 0x04, 0x3e, 0x87, 0x37, 0x53, 0x3f,
// //   0xe2, 0xf7, 0x31, 0x3e, 0xe0, 0x8b, 0x2b, 0xbd, 0xe6, 0x90, 0xb8, 0x3e,
// //   0xf2, 0x25, 0x88, 0xbe, 0xdc, 0x64, 0x92, 0x3e, 0x14, 0xb1, 0x7a, 0xbe,
// //   0x38, 0xe8, 0x43, 0x3d, 0x10, 0x23, 0xe4, 0xbe, 0xac, 0x28, 0x05, 0x3e,
// //   0x2f, 0x3e, 0x1c, 0xbf, 0xff, 0x65, 0x9e, 0xbe, 0xb0, 0x82, 0xb8, 0x3d,
// //   0xdd, 0x75, 0x0f, 0xbf, 0x1c, 0x33, 0x28, 0xbe, 0x4e, 0xdb, 0xd1, 0x3e,
// //   0xdc, 0x48, 0x52, 0x3e, 0x60, 0x60, 0x7f, 0x3d, 0x4f, 0xd5, 0x91, 0xbe,
// //   0x38, 0xf9, 0x9e, 0x3d, 0xc0, 0x80, 0xfc, 0xbe, 0x0d, 0x7b, 0x2d, 0xbf,
// //   0x23, 0x16, 0xb2, 0x3e, 0x5a, 0x49, 0x0b, 0xbf, 0xbc, 0x11, 0x10, 0x3e,
// //   0x2d, 0xb7, 0x06, 0xbe, 0x13, 0x01, 0xf6, 0xbe, 0xfa, 0x3d, 0x5b, 0x3f,
// //   0x8a, 0x6a, 0x0c, 0x3c, 0xa8, 0xe3, 0xa9, 0x3d, 0xd9, 0x0c, 0xff, 0x3e,
// //   0x29, 0x59, 0x10, 0xbf, 0xb0, 0xb0, 0xe6, 0x3d, 0x7a, 0x9c, 0xca, 0x3e,
// //   0x21, 0xd6, 0x3e, 0x3e, 0x07, 0x68, 0x0b, 0x3f, 0x5a, 0x63, 0x9a, 0x3e,
// //   0x03, 0x89, 0xa2, 0xbd, 0x77, 0xdc, 0x6d, 0x3c, 0x29, 0x4f, 0xc8, 0x3e,
// //   0x91, 0x43, 0x0c, 0xbe, 0xc8, 0x34, 0x34, 0xbe, 0xbd, 0xf0, 0x55, 0x3f,
// //   0xf6, 0xd6, 0x02, 0x3f, 0x16, 0x6b, 0x4b, 0x3e, 0xd8, 0xae, 0x87, 0x3d,
// //   0xc7, 0xf1, 0x7c, 0xbe, 0x24, 0xda, 0x38, 0xbe, 0xd7, 0xba, 0x93, 0xbe,
// //   0x46, 0x4c, 0x8a, 0x3e, 0xbb, 0x0e, 0xf4, 0x3e, 0xb2, 0xfe, 0xff, 0xff,
// //   0x04, 0x00, 0x00, 0x00, 0x40, 0x01, 0x00, 0x00, 0x19, 0xa4, 0xee, 0xbe,
// //   0xf7, 0x78, 0xf1, 0xbe, 0xee, 0xe1, 0x35, 0x3c, 0x40, 0xd9, 0x4c, 0x3c,
// //   0x8d, 0x09, 0x9f, 0xbe, 0xfd, 0x9e, 0x12, 0xbe, 0x8e, 0xdd, 0x90, 0x3e,
// //   0x8b, 0x03, 0xfd, 0x3e, 0xd8, 0x26, 0x0d, 0x3f, 0x8a, 0x41, 0x94, 0x3e,
// //   0xab, 0xc4, 0x9a, 0xbf, 0x93, 0xf6, 0x13, 0x3e, 0xc3, 0xde, 0xc2, 0xbe,
// //   0xd7, 0x2c, 0x1d, 0x3e, 0x26, 0x92, 0x4f, 0xbe, 0xb0, 0xd0, 0x3c, 0x3e,
// //   0x05, 0xb1, 0x29, 0xbf, 0xfa, 0x70, 0xc5, 0x3d, 0x66, 0x39, 0xa6, 0xbd,
// //   0x62, 0x2f, 0x30, 0x3e, 0x1c, 0xcb, 0x07, 0x3f, 0x0a, 0xfb, 0xb1, 0x3e,
// //   0xe4, 0x6a, 0x9e, 0x3e, 0xdc, 0x65, 0x08, 0xbd, 0x95, 0x6c, 0x95, 0xbe,
// //   0x5b, 0xb3, 0x1e, 0x3f, 0xbc, 0x22, 0xe4, 0x3e, 0x40, 0xa7, 0xa9, 0x3e,
// //   0x10, 0x2a, 0x5c, 0x3d, 0x8c, 0x8c, 0xce, 0xbf, 0x7b, 0xc2, 0x69, 0x3e,
// //   0x05, 0xfc, 0xad, 0xbf, 0x93, 0x22, 0x27, 0xbf, 0x3e, 0xcd, 0xfd, 0x3e,
// //   0xac, 0x30, 0x9b, 0xbf, 0x84, 0x92, 0x28, 0xbe, 0x98, 0xe5, 0xe8, 0x3e,
// //   0x83, 0xe7, 0x3e, 0xbf, 0x19, 0xd0, 0x0a, 0xbf, 0x96, 0x3f, 0x7b, 0x3e,
// //   0xf5, 0x48, 0xac, 0xbd, 0x90, 0x3f, 0x69, 0xbf, 0x82, 0x4b, 0x49, 0x3f,
// //   0xe0, 0x31, 0x49, 0xbd, 0x40, 0x02, 0xec, 0xbc, 0xa0, 0x4c, 0xa7, 0x3f,
// //   0xef, 0x4e, 0x14, 0xbe, 0x58, 0x01, 0x5b, 0x3f, 0xab, 0x55, 0xbd, 0xbe,
// //   0xbf, 0x41, 0x0f, 0x3f, 0x9d, 0x87, 0xba, 0x3e, 0xa8, 0x3a, 0xee, 0x3e,
// //   0x1e, 0xdb, 0xbf, 0x3e, 0x70, 0x74, 0x87, 0x3f, 0x2b, 0x79, 0x07, 0x3e,
// //   0x98, 0x88, 0x34, 0xbf, 0x90, 0x80, 0x30, 0xbe, 0x45, 0x3d, 0xfc, 0x3e,
// //   0xb5, 0x34, 0x59, 0xbf, 0x00, 0xe1, 0x08, 0xbb, 0x70, 0x1b, 0xac, 0x3e,
// //   0x21, 0x59, 0xb0, 0x3e, 0xce, 0x40, 0x14, 0xbe, 0xec, 0x1d, 0x76, 0x3e,
// //   0xcc, 0xf2, 0x7a, 0xbd, 0x51, 0xc0, 0x17, 0x3d, 0xc3, 0x61, 0x29, 0xbd,
// //   0x89, 0xe5, 0xb4, 0xbe, 0x96, 0x6c, 0xd9, 0xbe, 0xc1, 0xd2, 0x10, 0xbf,
// //   0x34, 0x9e, 0xae, 0xbd, 0x3c, 0x18, 0xc0, 0xbd, 0x1b, 0x79, 0x35, 0x3f,
// //   0x55, 0x19, 0x65, 0x3f, 0xa3, 0x8d, 0x06, 0xbe, 0xfa, 0xdd, 0x9e, 0xbe,
// //   0xc0, 0xca, 0xd4, 0xbc, 0xfe, 0x92, 0x8f, 0x3e, 0xfc, 0x65, 0x35, 0xbd,
// //   0xe3, 0xd0, 0xd4, 0xbe, 0x00, 0x00, 0x06, 0x00, 0x08, 0x00, 0x04, 0x00,
// //   0x06, 0x00, 0x00, 0x00, 0x04, 0x00, 0x00, 0x00, 0xf0, 0x00, 0x00, 0x00,
// //   0x4a, 0x7c, 0x08, 0x3d, 0x78, 0x8e, 0x63, 0x3d, 0x9d, 0x2f, 0xe7, 0x3d,
// //   0x06, 0x0e, 0x07, 0xbb, 0x1b, 0xd8, 0x55, 0x3c, 0x2c, 0x9b, 0x47, 0xbb,
// //   0xb2, 0xf2, 0x31, 0x3d, 0xad, 0x62, 0x6c, 0xbd, 0xff, 0x75, 0xa9, 0xbe,
// //   0x71, 0xeb, 0xcd, 0xbc, 0x20, 0xa0, 0x0c, 0x3d, 0xc0, 0xe6, 0x6c, 0xbe,
// //   0xdb, 0xe6, 0x28, 0x3f, 0xd7, 0x0b, 0x89, 0x3b, 0xf9, 0xc0, 0x90, 0x3b,
// //   0x76, 0x2c, 0xbf, 0x3c, 0x92, 0xe9, 0x18, 0xbe, 0x78, 0xa5, 0x82, 0x3e,
// //   0x80, 0xda, 0xe0, 0x3e, 0x45, 0xc4, 0xbd, 0x3d, 0x66, 0xcc, 0xa7, 0x3e,
// //   0xcc, 0x08, 0x85, 0xbd, 0xc2, 0xb3, 0xd6, 0xbe, 0x90, 0x7f, 0x5e, 0xbc,
// //   0x65, 0x8b, 0xf0, 0x3b, 0x7c, 0x59, 0x34, 0x3c, 0x4b, 0x19, 0x1c, 0xbd,
// //   0x99, 0x80, 0xa9, 0x3d, 0x3a, 0xe5, 0xe9, 0xbd, 0xa9, 0x42, 0xfd, 0x3c,
// //   0x54, 0x85, 0x11, 0x3d, 0xd2, 0x08, 0x59, 0xbf, 0x4f, 0xe7, 0xc0, 0x3e,
// //   0x56, 0xd8, 0xf1, 0xbc, 0xc2, 0x44, 0x6e, 0xc0, 0x48, 0x32, 0x6a, 0x3f,
// //   0x25, 0xf9, 0x73, 0xbf, 0x5c, 0x37, 0xe0, 0xbf, 0xf7, 0x6b, 0x66, 0xbd,
// //   0x03, 0xd8, 0x95, 0x3f, 0xc1, 0x4d, 0xa3, 0xbe, 0xd9, 0x95, 0x65, 0x3f,
// //   0x23, 0xfd, 0x80, 0xbe, 0x01, 0x57, 0x17, 0xc0, 0xbc, 0x42, 0x21, 0x3e,
// //   0x57, 0xfa, 0x73, 0x3f, 0x01, 0x53, 0xcf, 0xbf, 0xdb, 0x71, 0x9a, 0x3e,
// //   0xa5, 0x58, 0xcd, 0x3e, 0x29, 0x9d, 0x07, 0xbf, 0xd8, 0x1e, 0x9c, 0x3e,
// //   0x7e, 0xbf, 0xdd, 0x3f, 0x87, 0x2b, 0x04, 0x3f, 0x25, 0x91, 0x7b, 0xbe,
// //   0x42, 0x3a, 0x20, 0x3e, 0x40, 0xc5, 0xf3, 0xbe, 0xe4, 0xc3, 0xb1, 0xbf,
// //   0x61, 0x06, 0x0a, 0x3e, 0xef, 0xaf, 0xfc, 0x3e, 0xe2, 0xec, 0x0f, 0x3f,
// //   0x20, 0xf7, 0xff, 0xff, 0x24, 0xf7, 0xff, 0xff, 0x0f, 0x00, 0x00, 0x00,
// //   0x4d, 0x4c, 0x49, 0x52, 0x20, 0x43, 0x6f, 0x6e, 0x76, 0x65, 0x72, 0x74,
// //   0x65, 0x64, 0x2e, 0x00, 0x01, 0x00, 0x00, 0x00, 0x14, 0x00, 0x00, 0x00,
// //   0x00, 0x00, 0x0e, 0x00, 0x18, 0x00, 0x14, 0x00, 0x10, 0x00, 0x0c, 0x00,
// //   0x08, 0x00, 0x04, 0x00, 0x0e, 0x00, 0x00, 0x00, 0x14, 0x00, 0x00, 0x00,
// //   0x1c, 0x00, 0x00, 0x00, 0x54, 0x01, 0x00, 0x00, 0x58, 0x01, 0x00, 0x00,
// //   0x5c, 0x01, 0x00, 0x00, 0x04, 0x00, 0x00, 0x00, 0x6d, 0x61, 0x69, 0x6e,
// //   0x00, 0x00, 0x00, 0x00, 0x05, 0x00, 0x00, 0x00, 0xf8, 0x00, 0x00, 0x00,
// //   0xb0, 0x00, 0x00, 0x00, 0x78, 0x00, 0x00, 0x00, 0x34, 0x00, 0x00, 0x00,
// //   0x10, 0x00, 0x00, 0x00, 0x00, 0x00, 0x0a, 0x00, 0x10, 0x00, 0x0c, 0x00,
// //   0x08, 0x00, 0x04, 0x00, 0x0a, 0x00, 0x00, 0x00, 0x0c, 0x00, 0x00, 0x00,
// //   0x10, 0x00, 0x00, 0x00, 0x01, 0x00, 0x00, 0x00, 0x01, 0x00, 0x00, 0x00,
// //   0x0d, 0x00, 0x00, 0x00, 0x01, 0x00, 0x00, 0x00, 0x0c, 0x00, 0x00, 0x00,
// //   0x56, 0xff, 0xff, 0xff, 0x1c, 0x00, 0x00, 0x00, 0x00, 0x00, 0x00, 0x08,
// //   0x1c, 0x00, 0x00, 0x00, 0x20, 0x00, 0x00, 0x00, 0x00, 0x00, 0x0a, 0x00,
// //   0x08, 0x00, 0x00, 0x00, 0x00, 0x00, 0x07, 0x00, 0x0a, 0x00, 0x00, 0x00,
// //   0x00, 0x00, 0x00, 0x01, 0x01, 0x00, 0x00, 0x00, 0x0c, 0x00, 0x00, 0x00,
// //   0x03, 0x00, 0x00, 0x00, 0x0b, 0x00, 0x00, 0x00, 0x01, 0x00, 0x00, 0x00,
// //   0x07, 0x00, 0x00, 0x00, 0x96, 0xff, 0xff, 0xff, 0x10, 0x00, 0x00, 0x00,
// //   0x00, 0x00, 0x00, 0x08, 0x10, 0x00, 0x00, 0x00, 0x14, 0x00, 0x00, 0x00,
// //   0x86, 0xff, 0xff, 0xff, 0x00, 0x00, 0x01, 0x01, 0x01, 0x00, 0x00, 0x00,
// //   0x0b, 0x00, 0x00, 0x00, 0x03, 0x00, 0x00, 0x00, 0x0a, 0x00, 0x00, 0x00,
// //   0x02, 0x00, 0x00, 0x00, 0x06, 0x00, 0x00, 0x00, 0xca, 0xff, 0xff, 0xff,
// //   0x10, 0x00, 0x00, 0x00, 0x00, 0x00, 0x00, 0x08, 0x10, 0x00, 0x00, 0x00,
// //   0x14, 0x00, 0x00, 0x00, 0xba, 0xff, 0xff, 0xff, 0x00, 0x00, 0x01, 0x01,
// //   0x01, 0x00, 0x00, 0x00, 0x0a, 0x00, 0x00, 0x00, 0x03, 0x00, 0x00, 0x00,
// //   0x09, 0x00, 0x00, 0x00, 0x03, 0x00, 0x00, 0x00, 0x05, 0x00, 0x00, 0x00,
// //   0x00, 0x00, 0x0e, 0x00, 0x16, 0x00, 0x00, 0x00, 0x10, 0x00, 0x0c, 0x00,
// //   0x0b, 0x00, 0x04, 0x00, 0x0e, 0x00, 0x00, 0x00, 0x1c, 0x00, 0x00, 0x00,
// //   0x00, 0x00, 0x00, 0x08, 0x1c, 0x00, 0x00, 0x00, 0x20, 0x00, 0x00, 0x00,
// //   0x00, 0x00, 0x0a, 0x00, 0x08, 0x00, 0x07, 0x00, 0x00, 0x00, 0x06, 0x00,
// //   0x0a, 0x00, 0x00, 0x00, 0x00, 0x00, 0x01, 0x01, 0x01, 0x00, 0x00, 0x00,
// //   0x09, 0x00, 0x00, 0x00, 0x03, 0x00, 0x00, 0x00, 0x00, 0x00, 0x00, 0x00,
// //   0x08, 0x00, 0x00, 0x00, 0x04, 0x00, 0x00, 0x00, 0x01, 0x00, 0x00, 0x00,
// //   0x0d, 0x00, 0x00, 0x00, 0x01, 0x00, 0x00, 0x00, 0x00, 0x00, 0x00, 0x00,
// //   0x0e, 0x00, 0x00, 0x00, 0x0c, 0x07, 0x00, 0x00, 0xb4, 0x06, 0x00, 0x00,
// //   0x5c, 0x06, 0x00, 0x00, 0x1c, 0x06, 0x00, 0x00, 0xa8, 0x05, 0x00, 0x00,
// //   0x34, 0x05, 0x00, 0x00, 0xc0, 0x04, 0x00, 0x00, 0x4c, 0x04, 0x00, 0x00,
// //   0xe4, 0x03, 0x00, 0x00, 0xf8, 0x02, 0x00, 0x00, 0x0c, 0x02, 0x00, 0x00,
// //   0x20, 0x01, 0x00, 0x00, 0x68, 0x00, 0x00, 0x00, 0x04, 0x00, 0x00, 0x00,
// //   0x42, 0xf9, 0xff, 0xff, 0x00, 0x00, 0x00, 0x01, 0x14, 0x00, 0x00, 0x00,
// //   0x20, 0x00, 0x00, 0x00, 0x20, 0x00, 0x00, 0x00, 0x0e, 0x00, 0x00, 0x00,
// //   0x38, 0x00, 0x00, 0x00, 0x03, 0x00, 0x00, 0x00, 0xff, 0xff, 0xff, 0xff,
// //   0x2c, 0x01, 0x00, 0x00, 0x06, 0x00, 0x00, 0x00, 0x2c, 0xf9, 0xff, 0xff,
// //   0x1b, 0x00, 0x00, 0x00, 0x53, 0x74, 0x61, 0x74, 0x65, 0x66, 0x75, 0x6c,
// //   0x50, 0x61, 0x72, 0x74, 0x69, 0x74, 0x69, 0x6f, 0x6e, 0x65, 0x64, 0x43,
// //   0x61, 0x6c, 0x6c, 0x5f, 0x31, 0x3a, 0x30, 0x00, 0x03, 0x00, 0x00, 0x00,
// //   0x01, 0x00, 0x00, 0x00, 0x2c, 0x01, 0x00, 0x00, 0x06, 0x00, 0x00, 0x00,
// //   0xa2, 0xf9, 0xff, 0xff, 0x00, 0x00, 0x00, 0x01, 0x14, 0x00, 0x00, 0x00,
// //   0x20, 0x00, 0x00, 0x00, 0x20, 0x00, 0x00, 0x00, 0x0d, 0x00, 0x00, 0x00,
// //   0x8c, 0x00, 0x00, 0x00, 0x03, 0x00, 0x00, 0x00, 0xff, 0xff, 0xff, 0xff,
// //   0x2c, 0x01, 0x00, 0x00, 0x06, 0x00, 0x00, 0x00, 0x8c, 0xf9, 0xff, 0xff,
// //   0x6e, 0x00, 0x00, 0x00, 0x61, 0x6e, 0x6f, 0x6d, 0x61, 0x6c, 0x79, 0x5f,
// //   0x64, 0x65, 0x74, 0x65, 0x63, 0x74, 0x6f, 0x72, 0x5f, 0x37, 0x5f, 0x31,
// //   0x2f, 0x73, 0x65, 0x71, 0x75, 0x65, 0x6e, 0x74, 0x69, 0x61, 0x6c, 0x5f,
// //   0x31, 0x35, 0x5f, 0x31, 0x2f, 0x64, 0x65, 0x6e, 0x73, 0x65, 0x5f, 0x33,
// //   0x31, 0x5f, 0x31, 0x2f, 0x4d, 0x61, 0x74, 0x4d, 0x75, 0x6c, 0x3b, 0x61,
// //   0x6e, 0x6f, 0x6d, 0x61, 0x6c, 0x79, 0x5f, 0x64, 0x65, 0x74, 0x65, 0x63,
// //   0x74, 0x6f, 0x72, 0x5f, 0x37, 0x5f, 0x31, 0x2f, 0x73, 0x65, 0x71, 0x75,
// //   0x65, 0x6e, 0x74, 0x69, 0x61, 0x6c, 0x5f, 0x31, 0x35, 0x5f, 0x31, 0x2f,
// //   0x64, 0x65, 0x6e, 0x73, 0x65, 0x5f, 0x33, 0x31, 0x5f, 0x31, 0x2f, 0x42,
// //   0x69, 0x61, 0x73, 0x41, 0x64, 0x64, 0x00, 0x00, 0x03, 0x00, 0x00, 0x00,
// //   0x01, 0x00, 0x00, 0x00, 0x2c, 0x01, 0x00, 0x00, 0x06, 0x00, 0x00, 0x00,
// //   0x56, 0xfa, 0xff, 0xff, 0x00, 0x00, 0x00, 0x01, 0x14, 0x00, 0x00, 0x00,
// //   0x20, 0x00, 0x00, 0x00, 0x20, 0x00, 0x00, 0x00, 0x0c, 0x00, 0x00, 0x00,
// //   0xc0, 0x00, 0x00, 0x00, 0x03, 0x00, 0x00, 0x00, 0xff, 0xff, 0xff, 0xff,
// //   0x2c, 0x01, 0x00, 0x00, 0x0a, 0x00, 0x00, 0x00, 0x40, 0xfa, 0xff, 0xff,
// //   0xa3, 0x00, 0x00, 0x00, 0x61, 0x6e, 0x6f, 0x6d, 0x61, 0x6c, 0x79, 0x5f,
// //   0x64, 0x65, 0x74, 0x65, 0x63, 0x74, 0x6f, 0x72, 0x5f, 0x37, 0x5f, 0x31,
// //   0x2f, 0x73, 0x65, 0x71, 0x75, 0x65, 0x6e, 0x74, 0x69, 0x61, 0x6c, 0x5f,
// //   0x31, 0x35, 0x5f, 0x31, 0x2f, 0x64, 0x65, 0x6e, 0x73, 0x65, 0x5f, 0x33,
// //   0x30, 0x5f, 0x31, 0x2f, 0x4d, 0x61, 0x74, 0x4d, 0x75, 0x6c, 0x3b, 0x61,
// //   0x6e, 0x6f, 0x6d, 0x61, 0x6c, 0x79, 0x5f, 0x64, 0x65, 0x74, 0x65, 0x63,
// //   0x74, 0x6f, 0x72, 0x5f, 0x37, 0x5f, 0x31, 0x2f, 0x73, 0x65, 0x71, 0x75,
// //   0x65, 0x6e, 0x74, 0x69, 0x61, 0x6c, 0x5f, 0x31, 0x35, 0x5f, 0x31, 0x2f,
// //   0x64, 0x65, 0x6e, 0x73, 0x65, 0x5f, 0x33, 0x30, 0x5f, 0x31, 0x2f, 0x52,
// //   0x65, 0x6c, 0x75, 0x3b, 0x61, 0x6e, 0x6f, 0x6d, 0x61, 0x6c, 0x79, 0x5f,
// //   0x64, 0x65, 0x74, 0x65, 0x63, 0x74, 0x6f, 0x72, 0x5f, 0x37, 0x5f, 0x31,
// //   0x2f, 0x73, 0x65, 0x71, 0x75, 0x65, 0x6e, 0x74, 0x69, 0x61, 0x6c, 0x5f,
// //   0x31, 0x35, 0x5f, 0x31, 0x2f, 0x64, 0x65, 0x6e, 0x73, 0x65, 0x5f, 0x33,
// //   0x30, 0x5f, 0x31, 0x2f, 0x42, 0x69, 0x61, 0x73, 0x41, 0x64, 0x64, 0x00,
// //   0x03, 0x00, 0x00, 0x00, 0x01, 0x00, 0x00, 0x00, 0x2c, 0x01, 0x00, 0x00,
// //   0x0a, 0x00, 0x00, 0x00, 0x3e, 0xfb, 0xff, 0xff, 0x00, 0x00, 0x00, 0x01,
// //   0x14, 0x00, 0x00, 0x00, 0x20, 0x00, 0x00, 0x00, 0x20, 0x00, 0x00, 0x00,
// //   0x0b, 0x00, 0x00, 0x00, 0xc0, 0x00, 0x00, 0x00, 0x03, 0x00, 0x00, 0x00,
// //   0xff, 0xff, 0xff, 0xff, 0x2c, 0x01, 0x00, 0x00, 0x08, 0x00, 0x00, 0x00,
// //   0x28, 0xfb, 0xff, 0xff, 0xa3, 0x00, 0x00, 0x00, 0x61, 0x6e, 0x6f, 0x6d,
// //   0x61, 0x6c, 0x79, 0x5f, 0x64, 0x65, 0x74, 0x65, 0x63, 0x74, 0x6f, 0x72,
// //   0x5f, 0x37, 0x5f, 0x31, 0x2f, 0x73, 0x65, 0x71, 0x75, 0x65, 0x6e, 0x74,
// //   0x69, 0x61, 0x6c, 0x5f, 0x31, 0x34, 0x5f, 0x31, 0x2f, 0x64, 0x65, 0x6e,
// //   0x73, 0x65, 0x5f, 0x32, 0x39, 0x5f, 0x31, 0x2f, 0x4d, 0x61, 0x74, 0x4d,
// //   0x75, 0x6c, 0x3b, 0x61, 0x6e, 0x6f, 0x6d, 0x61, 0x6c, 0x79, 0x5f, 0x64,
// //   0x65, 0x74, 0x65, 0x63, 0x74, 0x6f, 0x72, 0x5f, 0x37, 0x5f, 0x31, 0x2f,
// //   0x73, 0x65, 0x71, 0x75, 0x65, 0x6e, 0x74, 0x69, 0x61, 0x6c, 0x5f, 0x31,
// //   0x34, 0x5f, 0x31, 0x2f, 0x64, 0x65, 0x6e, 0x73, 0x65, 0x5f, 0x32, 0x39,
// //   0x5f, 0x31, 0x2f, 0x52, 0x65, 0x6c, 0x75, 0x3b, 0x61, 0x6e, 0x6f, 0x6d,
// //   0x61, 0x6c, 0x79, 0x5f, 0x64, 0x65, 0x74, 0x65, 0x63, 0x74, 0x6f, 0x72,
// //   0x5f, 0x37, 0x5f, 0x31, 0x2f, 0x73, 0x65, 0x71, 0x75, 0x65, 0x6e, 0x74,
// //   0x69, 0x61, 0x6c, 0x5f, 0x31, 0x34, 0x5f, 0x31, 0x2f, 0x64, 0x65, 0x6e,
// //   0x73, 0x65, 0x5f, 0x32, 0x39, 0x5f, 0x31, 0x2f, 0x42, 0x69, 0x61, 0x73,
// //   0x41, 0x64, 0x64, 0x00, 0x03, 0x00, 0x00, 0x00, 0x01, 0x00, 0x00, 0x00,
// //   0x2c, 0x01, 0x00, 0x00, 0x08, 0x00, 0x00, 0x00, 0x26, 0xfc, 0xff, 0xff,
// //   0x00, 0x00, 0x00, 0x01, 0x14, 0x00, 0x00, 0x00, 0x20, 0x00, 0x00, 0x00,
// //   0x20, 0x00, 0x00, 0x00, 0x0a, 0x00, 0x00, 0x00, 0xc0, 0x00, 0x00, 0x00,
// //   0x03, 0x00, 0x00, 0x00, 0xff, 0xff, 0xff, 0xff, 0x2c, 0x01, 0x00, 0x00,
// //   0x0a, 0x00, 0x00, 0x00, 0x10, 0xfc, 0xff, 0xff, 0xa3, 0x00, 0x00, 0x00,
// //   0x61, 0x6e, 0x6f, 0x6d, 0x61, 0x6c, 0x79, 0x5f, 0x64, 0x65, 0x74, 0x65,
// //   0x63, 0x74, 0x6f, 0x72, 0x5f, 0x37, 0x5f, 0x31, 0x2f, 0x73, 0x65, 0x71,
// //   0x75, 0x65, 0x6e, 0x74, 0x69, 0x61, 0x6c, 0x5f, 0x31, 0x34, 0x5f, 0x31,
// //   0x2f, 0x64, 0x65, 0x6e, 0x73, 0x65, 0x5f, 0x32, 0x38, 0x5f, 0x31, 0x2f,
// //   0x4d, 0x61, 0x74, 0x4d, 0x75, 0x6c, 0x3b, 0x61, 0x6e, 0x6f, 0x6d, 0x61,
// //   0x6c, 0x79, 0x5f, 0x64, 0x65, 0x74, 0x65, 0x63, 0x74, 0x6f, 0x72, 0x5f,
// //   0x37, 0x5f, 0x31, 0x2f, 0x73, 0x65, 0x71, 0x75, 0x65, 0x6e, 0x74, 0x69,
// //   0x61, 0x6c, 0x5f, 0x31, 0x34, 0x5f, 0x31, 0x2f, 0x64, 0x65, 0x6e, 0x73,
// //   0x65, 0x5f, 0x32, 0x38, 0x5f, 0x31, 0x2f, 0x52, 0x65, 0x6c, 0x75, 0x3b,
// //   0x61, 0x6e, 0x6f, 0x6d, 0x61, 0x6c, 0x79, 0x5f, 0x64, 0x65, 0x74, 0x65,
// //   0x63, 0x74, 0x6f, 0x72, 0x5f, 0x37, 0x5f, 0x31, 0x2f, 0x73, 0x65, 0x71,
// //   0x75, 0x65, 0x6e, 0x74, 0x69, 0x61, 0x6c, 0x5f, 0x31, 0x34, 0x5f, 0x31,
// //   0x2f, 0x64, 0x65, 0x6e, 0x73, 0x65, 0x5f, 0x32, 0x38, 0x5f, 0x31, 0x2f,
// //   0x42, 0x69, 0x61, 0x73, 0x41, 0x64, 0x64, 0x00, 0x03, 0x00, 0x00, 0x00,
// //   0x01, 0x00, 0x00, 0x00, 0x2c, 0x01, 0x00, 0x00, 0x0a, 0x00, 0x00, 0x00,
// //   0x62, 0xfd, 0xff, 0xff, 0x00, 0x00, 0x00, 0x01, 0x10, 0x00, 0x00, 0x00,
// //   0x10, 0x00, 0x00, 0x00, 0x09, 0x00, 0x00, 0x00, 0x44, 0x00, 0x00, 0x00,
// //   0xe4, 0xfc, 0xff, 0xff, 0x36, 0x00, 0x00, 0x00, 0x61, 0x6e, 0x6f, 0x6d,
// //   0x61, 0x6c, 0x79, 0x5f, 0x64, 0x65, 0x74, 0x65, 0x63, 0x74, 0x6f, 0x72,
// //   0x5f, 0x37, 0x5f, 0x31, 0x2f, 0x73, 0x65, 0x71, 0x75, 0x65, 0x6e, 0x74,
// //   0x69, 0x61, 0x6c, 0x5f, 0x31, 0x34, 0x5f, 0x31, 0x2f, 0x64, 0x65, 0x6e,
// //   0x73, 0x65, 0x5f, 0x32, 0x38, 0x5f, 0x31, 0x2f, 0x4d, 0x61, 0x74, 0x4d,
// //   0x75, 0x6c, 0x00, 0x00, 0x02, 0x00, 0x00, 0x00, 0x0a, 0x00, 0x00, 0x00,
// //   0x06, 0x00, 0x00, 0x00, 0xc6, 0xfd, 0xff, 0xff, 0x00, 0x00, 0x00, 0x01,
// //   0x10, 0x00, 0x00, 0x00, 0x10, 0x00, 0x00, 0x00, 0x08, 0x00, 0x00, 0x00,
// //   0x54, 0x00, 0x00, 0x00, 0x48, 0xfd, 0xff, 0xff, 0x46, 0x00, 0x00, 0x00,
// //   0x61, 0x6e, 0x6f, 0x6d, 0x61, 0x6c, 0x79, 0x5f, 0x64, 0x65, 0x74, 0x65,
// //   0x63, 0x74, 0x6f, 0x72, 0x5f, 0x37, 0x5f, 0x31, 0x2f, 0x73, 0x65, 0x71,
// //   0x75, 0x65, 0x6e, 0x74, 0x69, 0x61, 0x6c, 0x5f, 0x31, 0x35, 0x5f, 0x31,
// //   0x2f, 0x64, 0x65, 0x6e, 0x73, 0x65, 0x5f, 0x33, 0x31, 0x5f, 0x31, 0x2f,
// //   0x42, 0x69, 0x61, 0x73, 0x41, 0x64, 0x64, 0x2f, 0x52, 0x65, 0x61, 0x64,
// //   0x56, 0x61, 0x72, 0x69, 0x61, 0x62, 0x6c, 0x65, 0x4f, 0x70, 0x00, 0x00,
// //   0x01, 0x00, 0x00, 0x00, 0x06, 0x00, 0x00, 0x00, 0x36, 0xfe, 0xff, 0xff,
// //   0x00, 0x00, 0x00, 0x01, 0x10, 0x00, 0x00, 0x00, 0x10, 0x00, 0x00, 0x00,
// //   0x07, 0x00, 0x00, 0x00, 0x54, 0x00, 0x00, 0x00, 0xb8, 0xfd, 0xff, 0xff,
// //   0x46, 0x00, 0x00, 0x00, 0x61, 0x6e, 0x6f, 0x6d, 0x61, 0x6c, 0x79, 0x5f,
// //   0x64, 0x65, 0x74, 0x65, 0x63, 0x74, 0x6f, 0x72, 0x5f, 0x37, 0x5f, 0x31,
// //   0x2f, 0x73, 0x65, 0x71, 0x75, 0x65, 0x6e, 0x74, 0x69, 0x61, 0x6c, 0x5f,
// //   0x31, 0x35, 0x5f, 0x31, 0x2f, 0x64, 0x65, 0x6e, 0x73, 0x65, 0x5f, 0x33,
// //   0x30, 0x5f, 0x31, 0x2f, 0x42, 0x69, 0x61, 0x73, 0x41, 0x64, 0x64, 0x2f,
// //   0x52, 0x65, 0x61, 0x64, 0x56, 0x61, 0x72, 0x69, 0x61, 0x62, 0x6c, 0x65,
// //   0x4f, 0x70, 0x00, 0x00, 0x01, 0x00, 0x00, 0x00, 0x0a, 0x00, 0x00, 0x00,
// //   0xa6, 0xfe, 0xff, 0xff, 0x00, 0x00, 0x00, 0x01, 0x10, 0x00, 0x00, 0x00,
// //   0x10, 0x00, 0x00, 0x00, 0x06, 0x00, 0x00, 0x00, 0x54, 0x00, 0x00, 0x00,
// //   0x28, 0xfe, 0xff, 0xff, 0x46, 0x00, 0x00, 0x00, 0x61, 0x6e, 0x6f, 0x6d,
// //   0x61, 0x6c, 0x79, 0x5f, 0x64, 0x65, 0x74, 0x65, 0x63, 0x74, 0x6f, 0x72,
// //   0x5f, 0x37, 0x5f, 0x31, 0x2f, 0x73, 0x65, 0x71, 0x75, 0x65, 0x6e, 0x74,
// //   0x69, 0x61, 0x6c, 0x5f, 0x31, 0x34, 0x5f, 0x31, 0x2f, 0x64, 0x65, 0x6e,
// //   0x73, 0x65, 0x5f, 0x32, 0x39, 0x5f, 0x31, 0x2f, 0x42, 0x69, 0x61, 0x73,
// //   0x41, 0x64, 0x64, 0x2f, 0x52, 0x65, 0x61, 0x64, 0x56, 0x61, 0x72, 0x69,
// //   0x61, 0x62, 0x6c, 0x65, 0x4f, 0x70, 0x00, 0x00, 0x01, 0x00, 0x00, 0x00,
// //   0x08, 0x00, 0x00, 0x00, 0x16, 0xff, 0xff, 0xff, 0x00, 0x00, 0x00, 0x01,
// //   0x10, 0x00, 0x00, 0x00, 0x10, 0x00, 0x00, 0x00, 0x05, 0x00, 0x00, 0x00,
// //   0x54, 0x00, 0x00, 0x00, 0x98, 0xfe, 0xff, 0xff, 0x46, 0x00, 0x00, 0x00,
// //   0x61, 0x6e, 0x6f, 0x6d, 0x61, 0x6c, 0x79, 0x5f, 0x64, 0x65, 0x74, 0x65,
// //   0x63, 0x74, 0x6f, 0x72, 0x5f, 0x37, 0x5f, 0x31, 0x2f, 0x73, 0x65, 0x71,
// //   0x75, 0x65, 0x6e, 0x74, 0x69, 0x61, 0x6c, 0x5f, 0x31, 0x34, 0x5f, 0x31,
// //   0x2f, 0x64, 0x65, 0x6e, 0x73, 0x65, 0x5f, 0x32, 0x38, 0x5f, 0x31, 0x2f,
// //   0x42, 0x69, 0x61, 0x73, 0x41, 0x64, 0x64, 0x2f, 0x52, 0x65, 0x61, 0x64,
// //   0x56, 0x61, 0x72, 0x69, 0x61, 0x62, 0x6c, 0x65, 0x4f, 0x70, 0x00, 0x00,
// //   0x01, 0x00, 0x00, 0x00, 0x0a, 0x00, 0x00, 0x00, 0x86, 0xff, 0xff, 0xff,
// //   0x00, 0x00, 0x00, 0x01, 0x10, 0x00, 0x00, 0x00, 0x10, 0x00, 0x00, 0x00,
// //   0x04, 0x00, 0x00, 0x00, 0x1c, 0x00, 0x00, 0x00, 0x08, 0xff, 0xff, 0xff,
// //   0x0f, 0x00, 0x00, 0x00, 0x61, 0x72, 0x69, 0x74, 0x68, 0x2e, 0x63, 0x6f,
// //   0x6e, 0x73, 0x74, 0x61, 0x6e, 0x74, 0x32, 0x00, 0x02, 0x00, 0x00, 0x00,
// //   0x08, 0x00, 0x00, 0x00, 0x0a, 0x00, 0x00, 0x00, 0xc2, 0xff, 0xff, 0xff,
// //   0x00, 0x00, 0x00, 0x01, 0x10, 0x00, 0x00, 0x00, 0x10, 0x00, 0x00, 0x00,
// //   0x03, 0x00, 0x00, 0x00, 0x1c, 0x00, 0x00, 0x00, 0x44, 0xff, 0xff, 0xff,
// //   0x0f, 0x00, 0x00, 0x00, 0x61, 0x72, 0x69, 0x74, 0x68, 0x2e, 0x63, 0x6f,
// //   0x6e, 0x73, 0x74, 0x61, 0x6e, 0x74, 0x31, 0x00, 0x02, 0x00, 0x00, 0x00,
// //   0x0a, 0x00, 0x00, 0x00, 0x08, 0x00, 0x00, 0x00, 0x00, 0x00, 0x16, 0x00,
// //   0x18, 0x00, 0x14, 0x00, 0x00, 0x00, 0x10, 0x00, 0x0c, 0x00, 0x08, 0x00,
// //   0x00, 0x00, 0x00, 0x00, 0x00, 0x00, 0x07, 0x00, 0x16, 0x00, 0x00, 0x00,
// //   0x00, 0x00, 0x00, 0x01, 0x10, 0x00, 0x00, 0x00, 0x10, 0x00, 0x00, 0x00,
// //   0x02, 0x00, 0x00, 0x00, 0x1c, 0x00, 0x00, 0x00, 0x98, 0xff, 0xff, 0xff,
// //   0x0e, 0x00, 0x00, 0x00, 0x61, 0x72, 0x69, 0x74, 0x68, 0x2e, 0x63, 0x6f,
// //   0x6e, 0x73, 0x74, 0x61, 0x6e, 0x74, 0x00, 0x00, 0x02, 0x00, 0x00, 0x00,
// //   0x06, 0x00, 0x00, 0x00, 0x0a, 0x00, 0x00, 0x00, 0x00, 0x00, 0x16, 0x00,
// //   0x1c, 0x00, 0x18, 0x00, 0x00, 0x00, 0x14, 0x00, 0x10, 0x00, 0x0c, 0x00,
// //   0x00, 0x00, 0x00, 0x00, 0x08, 0x00, 0x07, 0x00, 0x16, 0x00, 0x00, 0x00,
// //   0x00, 0x00, 0x00, 0x01, 0x14, 0x00, 0x00, 0x00, 0x24, 0x00, 0x00, 0x00,
// //   0x24, 0x00, 0x00, 0x00, 0x01, 0x00, 0x00, 0x00, 0x3c, 0x00, 0x00, 0x00,
// //   0x03, 0x00, 0x00, 0x00, 0xff, 0xff, 0xff, 0xff, 0x2c, 0x01, 0x00, 0x00,
// //   0x06, 0x00, 0x00, 0x00, 0x04, 0x00, 0x04, 0x00, 0x04, 0x00, 0x00, 0x00,
// //   0x18, 0x00, 0x00, 0x00, 0x73, 0x65, 0x72, 0x76, 0x69, 0x6e, 0x67, 0x5f,
// //   0x64, 0x65, 0x66, 0x61, 0x75, 0x6c, 0x74, 0x5f, 0x61, 0x72, 0x67, 0x73,
// //   0x5f, 0x30, 0x3a, 0x30, 0x00, 0x00, 0x00, 0x00, 0x03, 0x00, 0x00, 0x00,
// //   0x01, 0x00, 0x00, 0x00, 0x2c, 0x01, 0x00, 0x00, 0x06, 0x00, 0x00, 0x00,
// //   0x02, 0x00, 0x00, 0x00, 0x2c, 0x00, 0x00, 0x00, 0x10, 0x00, 0x00, 0x00,
// //   0x0c, 0x00, 0x0c, 0x00, 0x0b, 0x00, 0x00, 0x00, 0x00, 0x00, 0x04, 0x00,
// //   0x0c, 0x00, 0x00, 0x00, 0x0e, 0x00, 0x00, 0x00, 0x00, 0x00, 0x00, 0x0e,
// //   0x0c, 0x00, 0x10, 0x00, 0x0f, 0x00, 0x00, 0x00, 0x08, 0x00, 0x04, 0x00,
// //   0x0c, 0x00, 0x00, 0x00, 0x09, 0x00, 0x00, 0x00, 0x05, 0x00, 0x00, 0x00,
// //   0x00, 0x00, 0x00, 0x09
// // };
// // unsigned int cpr_training_model_len = 4240;


















// unsigned char cpr_training_model[] = {
//   0x1c, 0x00, 0x00, 0x00, 0x54, 0x46, 0x4c, 0x33, 0x14, 0x00, 0x20, 0x00,
//   0x1c, 0x00, 0x18, 0x00, 0x14, 0x00, 0x10, 0x00, 0x0c, 0x00, 0x00, 0x00,
//   0x08, 0x00, 0x04, 0x00, 0x14, 0x00, 0x00, 0x00, 0x1c, 0x00, 0x00, 0x00,
//   0x84, 0x00, 0x00, 0x00, 0xdc, 0x00, 0x00, 0x00, 0x14, 0x07, 0x00, 0x00,
//   0x24, 0x07, 0x00, 0x00, 0x1c, 0x10, 0x00, 0x00, 0x03, 0x00, 0x00, 0x00,
//   0x01, 0x00, 0x00, 0x00, 0x04, 0x00, 0x00, 0x00, 0x9a, 0xf8, 0xff, 0xff,
//   0x0c, 0x00, 0x00, 0x00, 0x1c, 0x00, 0x00, 0x00, 0x3c, 0x00, 0x00, 0x00,
//   0x0f, 0x00, 0x00, 0x00, 0x73, 0x65, 0x72, 0x76, 0x69, 0x6e, 0x67, 0x5f,
//   0x64, 0x65, 0x66, 0x61, 0x75, 0x6c, 0x74, 0x00, 0x01, 0x00, 0x00, 0x00,
//   0x04, 0x00, 0x00, 0x00, 0x98, 0xff, 0xff, 0xff, 0x0d, 0x00, 0x00, 0x00,
//   0x04, 0x00, 0x00, 0x00, 0x08, 0x00, 0x00, 0x00, 0x6f, 0x75, 0x74, 0x70,
//   0x75, 0x74, 0x5f, 0x30, 0x00, 0x00, 0x00, 0x00, 0x01, 0x00, 0x00, 0x00,
//   0x04, 0x00, 0x00, 0x00, 0x5e, 0xfa, 0xff, 0xff, 0x04, 0x00, 0x00, 0x00,
//   0x06, 0x00, 0x00, 0x00, 0x61, 0x72, 0x67, 0x73, 0x5f, 0x30, 0x00, 0x00,
//   0x02, 0x00, 0x00, 0x00, 0x34, 0x00, 0x00, 0x00, 0x04, 0x00, 0x00, 0x00,
//   0xdc, 0xff, 0xff, 0xff, 0x10, 0x00, 0x00, 0x00, 0x04, 0x00, 0x00, 0x00,
//   0x13, 0x00, 0x00, 0x00, 0x43, 0x4f, 0x4e, 0x56, 0x45, 0x52, 0x53, 0x49,
//   0x4f, 0x4e, 0x5f, 0x4d, 0x45, 0x54, 0x41, 0x44, 0x41, 0x54, 0x41, 0x00,
//   0x08, 0x00, 0x0c, 0x00, 0x08, 0x00, 0x04, 0x00, 0x08, 0x00, 0x00, 0x00,
//   0x0f, 0x00, 0x00, 0x00, 0x04, 0x00, 0x00, 0x00, 0x13, 0x00, 0x00, 0x00,
//   0x6d, 0x69, 0x6e, 0x5f, 0x72, 0x75, 0x6e, 0x74, 0x69, 0x6d, 0x65, 0x5f,
//   0x76, 0x65, 0x72, 0x73, 0x69, 0x6f, 0x6e, 0x00, 0x11, 0x00, 0x00, 0x00,
//   0x34, 0x06, 0x00, 0x00, 0x2c, 0x06, 0x00, 0x00, 0x2c, 0x05, 0x00, 0x00,
//   0xd4, 0x03, 0x00, 0x00, 0x84, 0x02, 0x00, 0x00, 0x4c, 0x02, 0x00, 0x00,
//   0x1c, 0x02, 0x00, 0x00, 0xe4, 0x01, 0x00, 0x00, 0xbc, 0x01, 0x00, 0x00,
//   0xbc, 0x00, 0x00, 0x00, 0xb4, 0x00, 0x00, 0x00, 0xac, 0x00, 0x00, 0x00,
//   0xa4, 0x00, 0x00, 0x00, 0x9c, 0x00, 0x00, 0x00, 0x94, 0x00, 0x00, 0x00,
//   0x74, 0x00, 0x00, 0x00, 0x04, 0x00, 0x00, 0x00, 0x16, 0xfb, 0xff, 0xff,
//   0x04, 0x00, 0x00, 0x00, 0x60, 0x00, 0x00, 0x00, 0x10, 0x00, 0x00, 0x00,
//   0x00, 0x00, 0x00, 0x00, 0x08, 0x00, 0x0e, 0x00, 0x08, 0x00, 0x04, 0x00,
//   0x08, 0x00, 0x00, 0x00, 0x10, 0x00, 0x00, 0x00, 0x24, 0x00, 0x00, 0x00,
//   0x00, 0x00, 0x06, 0x00, 0x08, 0x00, 0x04, 0x00, 0x06, 0x00, 0x00, 0x00,
//   0x04, 0x00, 0x00, 0x00, 0x00, 0x00, 0x00, 0x00, 0x0c, 0x00, 0x18, 0x00,
//   0x14, 0x00, 0x10, 0x00, 0x0c, 0x00, 0x04, 0x00, 0x0c, 0x00, 0x00, 0x00,
//   0xda, 0xa3, 0xe0, 0x1b, 0x7b, 0x81, 0x8e, 0xa2, 0x01, 0x00, 0x00, 0x00,
//   0x02, 0x00, 0x00, 0x00, 0x04, 0x00, 0x00, 0x00, 0x06, 0x00, 0x00, 0x00,
//   0x32, 0x2e, 0x31, 0x39, 0x2e, 0x30, 0x00, 0x00, 0x82, 0xfb, 0xff, 0xff,
//   0x04, 0x00, 0x00, 0x00, 0x10, 0x00, 0x00, 0x00, 0x32, 0x2e, 0x30, 0x2e,
//   0x30, 0x00, 0x00, 0x00, 0x00, 0x00, 0x00, 0x00, 0x00, 0x00, 0x00, 0x00,
//   0xbc, 0xf1, 0xff, 0xff, 0xc0, 0xf1, 0xff, 0xff, 0xc4, 0xf1, 0xff, 0xff,
//   0xc8, 0xf1, 0xff, 0xff, 0xcc, 0xf1, 0xff, 0xff, 0xb2, 0xfb, 0xff, 0xff,
//   0x04, 0x00, 0x00, 0x00, 0xf0, 0x00, 0x00, 0x00, 0xcb, 0xb3, 0x0f, 0x3e,
//   0xcc, 0x3a, 0xb4, 0xbe, 0x1b, 0xc9, 0xb1, 0xbe, 0x6a, 0xc4, 0x0e, 0xbf,
//   0xdb, 0x5c, 0xdc, 0x3e, 0x04, 0x28, 0x48, 0xbe, 0xc9, 0xd3, 0x1c, 0xbf,
//   0x74, 0xf8, 0x82, 0x3e, 0x44, 0x7a, 0x26, 0x3d, 0x02, 0x6f, 0x76, 0x3f,
//   0x6e, 0x71, 0x50, 0x3f, 0x2f, 0xff, 0x8e, 0x3e, 0x60, 0x2a, 0x03, 0x3d,
//   0x38, 0xda, 0x18, 0xbf, 0xa0, 0xbd, 0x0a, 0xbd, 0x04, 0xb9, 0xb5, 0xbe,
//   0x5b, 0x08, 0x9d, 0xbe, 0xa8, 0x14, 0x69, 0xbe, 0xd2, 0xb7, 0x22, 0x3e,
//   0x7f, 0xaa, 0x08, 0x3f, 0x24, 0x46, 0x50, 0xbe, 0xb0, 0xfc, 0x20, 0xbe,
//   0x59, 0x9e, 0x71, 0x3f, 0xde, 0xde, 0xbc, 0xbe, 0x29, 0xd3, 0x7c, 0x3c,
//   0x78, 0x1a, 0xba, 0xbe, 0xc2, 0x18, 0x0d, 0xbe, 0xda, 0x16, 0x5c, 0x3e,
//   0x14, 0x80, 0xd6, 0xbe, 0x44, 0x0f, 0xa3, 0x3d, 0x45, 0x5d, 0x1e, 0xbd,
//   0xf1, 0x92, 0xbc, 0x3d, 0x42, 0xb7, 0x22, 0x3e, 0xdd, 0x6d, 0xd0, 0xbe,
//   0x47, 0xdc, 0x6e, 0x3f, 0x24, 0x2d, 0x6e, 0x3f, 0x73, 0x2d, 0x74, 0xbe,
//   0xc6, 0xf4, 0x77, 0xbe, 0xd8, 0x53, 0xd3, 0xbe, 0x51, 0x37, 0x7e, 0xbe,
//   0x9d, 0xa8, 0xcb, 0x3d, 0x38, 0x00, 0x60, 0x3e, 0xdc, 0x54, 0x12, 0x3f,
//   0xe3, 0x02, 0x26, 0x3f, 0xc2, 0x33, 0xd7, 0x3e, 0x21, 0x86, 0x8e, 0x3d,
//   0x11, 0xc2, 0x05, 0x3f, 0x23, 0x35, 0xbe, 0xbd, 0xa8, 0x2a, 0x6d, 0x3e,
//   0x60, 0x0d, 0x7c, 0xbd, 0x80, 0x4b, 0x07, 0x3d, 0xd0, 0x36, 0x03, 0xbf,
//   0xde, 0x9f, 0xf8, 0xbe, 0x0c, 0xc8, 0xe4, 0xbe, 0x80, 0x2c, 0xbe, 0xbe,
//   0x66, 0xef, 0xd9, 0xbe, 0x13, 0x27, 0xa8, 0xbe, 0x2d, 0x75, 0xdb, 0x3e,
//   0x65, 0x21, 0x3a, 0x3d, 0x70, 0xe6, 0x90, 0x3d, 0xae, 0xfc, 0xff, 0xff,
//   0x04, 0x00, 0x00, 0x00, 0x18, 0x00, 0x00, 0x00, 0x43, 0x52, 0x1a, 0xbe,
//   0x2b, 0x6d, 0x62, 0xbe, 0x3a, 0x39, 0x03, 0xbe, 0xf4, 0x9b, 0x20, 0xbe,
//   0x5d, 0x67, 0x32, 0xbf, 0xf1, 0x79, 0xc8, 0xbe, 0xd2, 0xfc, 0xff, 0xff,
//   0x04, 0x00, 0x00, 0x00, 0x28, 0x00, 0x00, 0x00, 0x2d, 0x3e, 0xb2, 0x3e,
//   0x73, 0xa2, 0x94, 0x3e, 0x10, 0x2d, 0x9d, 0xbe, 0xef, 0x74, 0xc3, 0xbd,
//   0x25, 0x24, 0x81, 0x3e, 0xd3, 0x17, 0xd6, 0xbd, 0x00, 0x00, 0x00, 0x00,
//   0xe6, 0x55, 0x70, 0xbd, 0x73, 0xb2, 0x53, 0xbe, 0xc0, 0x93, 0x28, 0x3e,
//   0x06, 0xfd, 0xff, 0xff, 0x04, 0x00, 0x00, 0x00, 0x20, 0x00, 0x00, 0x00,
//   0xf4, 0x3e, 0x30, 0x3e, 0xba, 0xcf, 0x66, 0x3e, 0x27, 0xfc, 0x45, 0xbd,
//   0x08, 0xc7, 0x87, 0xbd, 0x2a, 0xa1, 0x9e, 0xbd, 0x6a, 0xea, 0x18, 0x3e,
//   0x33, 0x08, 0x94, 0x3e, 0x2f, 0xcc, 0x8b, 0xbe, 0x32, 0xfd, 0xff, 0xff,
//   0x04, 0x00, 0x00, 0x00, 0x28, 0x00, 0x00, 0x00, 0x90, 0x36, 0x1d, 0xbe,
//   0x48, 0x56, 0xc8, 0xbd, 0x00, 0x00, 0x00, 0x00, 0x4b, 0x57, 0x68, 0x3e,
//   0x78, 0x58, 0x3e, 0xbe, 0x1c, 0xb7, 0x5c, 0x3e, 0xa1, 0x87, 0x76, 0xbd,
//   0x82, 0x14, 0x87, 0x3e, 0x00, 0x00, 0x00, 0x00, 0x56, 0xf1, 0x00, 0xbc,
//   0x66, 0xfd, 0xff, 0xff, 0x04, 0x00, 0x00, 0x00, 0x40, 0x01, 0x00, 0x00,
//   0xab, 0x78, 0x62, 0x3e, 0x24, 0x46, 0x23, 0xbf, 0x00, 0xa6, 0xf7, 0x3a,
//   0x9b, 0xdb, 0x04, 0x3f, 0x05, 0xa8, 0x23, 0x3e, 0xd9, 0x25, 0x03, 0x3d,
//   0x84, 0x13, 0xbd, 0xbc, 0x80, 0x72, 0x84, 0x3e, 0x75, 0xad, 0x08, 0xbf,
//   0x74, 0x21, 0x81, 0xbe, 0xb6, 0xb4, 0xbd, 0xbe, 0x2b, 0x55, 0xd1, 0xbe,
//   0xd0, 0x70, 0x6e, 0xbd, 0x3a, 0xea, 0x6e, 0x3e, 0x7b, 0xd5, 0x9f, 0x3d,
//   0x6b, 0xf6, 0x97, 0xbe, 0x5c, 0xb1, 0x97, 0x3b, 0xc6, 0x3c, 0x33, 0x3f,
//   0x40, 0xed, 0x20, 0x3d, 0x0e, 0xa3, 0x4d, 0xbe, 0x30, 0x81, 0xd4, 0x3e,
//   0x86, 0x0b, 0x06, 0xbd, 0x70, 0x89, 0x2c, 0x3d, 0x8e, 0xea, 0x9f, 0xbe,
//   0x74, 0x44, 0x7d, 0x3e, 0x4e, 0x8e, 0xb7, 0x3d, 0x6a, 0x98, 0x78, 0xbe,
//   0xe6, 0xd0, 0xd6, 0xbe, 0x82, 0xb5, 0xb2, 0x3e, 0xbc, 0x5b, 0x73, 0xbe,
//   0x47, 0x14, 0x1c, 0x3d, 0xb8, 0x5d, 0xe0, 0x3d, 0xa8, 0x96, 0x0e, 0xbf,
//   0xb6, 0x12, 0xb0, 0x3e, 0x70, 0xf2, 0x18, 0xbf, 0xe1, 0xd4, 0xc6, 0xbe,
//   0x88, 0x4a, 0xe2, 0x3d, 0x1d, 0xfc, 0x80, 0xbe, 0xa4, 0xdf, 0xfd, 0x3e,
//   0xf1, 0xcb, 0x00, 0xbf, 0x06, 0xaf, 0xa2, 0x3c, 0x75, 0x0f, 0x91, 0x3f,
//   0x93, 0x75, 0x0e, 0xbf, 0xd8, 0x54, 0x85, 0x3d, 0xef, 0xcb, 0x50, 0xbd,
//   0x3d, 0xf5, 0x47, 0x3f, 0xab, 0x6c, 0x43, 0x3d, 0x9b, 0x4a, 0x1b, 0x3f,
//   0x5c, 0x48, 0xc1, 0xbd, 0x56, 0x3d, 0xaa, 0xbe, 0x4a, 0xcd, 0xd1, 0x3e,
//   0x3c, 0x3b, 0x49, 0x3f, 0x44, 0x38, 0x0a, 0x3f, 0xf6, 0xe8, 0x9e, 0x3e,
//   0x10, 0xcd, 0x81, 0xbe, 0x4c, 0xc9, 0xdb, 0xbe, 0xa5, 0xb5, 0xf9, 0x3e,
//   0x24, 0xe3, 0xff, 0x3e, 0x2a, 0x07, 0x96, 0x3e, 0x4c, 0xe5, 0x3b, 0x3e,
//   0xe9, 0x55, 0x1d, 0xbc, 0x4d, 0xd4, 0xb6, 0xbe, 0x42, 0x70, 0x65, 0xbe,
//   0xa0, 0x26, 0x7a, 0xbf, 0x2e, 0xd3, 0xa9, 0xbe, 0x18, 0x51, 0x44, 0x3f,
//   0x05, 0x62, 0x8e, 0xbd, 0xd6, 0x73, 0xb3, 0x3e, 0x40, 0x51, 0x3c, 0xbc,
//   0xc8, 0x4d, 0x92, 0x3d, 0xbf, 0xf3, 0x0e, 0xbe, 0x27, 0x90, 0xf2, 0xbd,
//   0xe8, 0x88, 0xeb, 0x3e, 0x71, 0x54, 0xa0, 0x3f, 0xf4, 0xab, 0x75, 0x3e,
//   0x3d, 0x5e, 0x51, 0x3f, 0x4a, 0x03, 0x61, 0x3e, 0x15, 0xb8, 0x8a, 0x3e,
//   0xf0, 0x27, 0xf9, 0x3d, 0x08, 0xad, 0xbf, 0xbe, 0xb2, 0xfe, 0xff, 0xff,
//   0x04, 0x00, 0x00, 0x00, 0x40, 0x01, 0x00, 0x00, 0x8a, 0x1b, 0xab, 0xbf,
//   0x68, 0x47, 0x84, 0x3e, 0xcd, 0xf8, 0xde, 0x3e, 0x3d, 0x8e, 0xe2, 0xbe,
//   0xc2, 0xdc, 0xee, 0x3e, 0x37, 0xef, 0x42, 0x3f, 0x6d, 0x21, 0xad, 0x3d,
//   0xa4, 0xc8, 0x0a, 0xbf, 0x1a, 0x20, 0x71, 0x3f, 0x7e, 0x89, 0x18, 0x3f,
//   0x84, 0xc1, 0x91, 0xbe, 0xf8, 0x70, 0x61, 0x3e, 0x78, 0x9a, 0xae, 0x3e,
//   0xae, 0x1b, 0x68, 0xbe, 0x09, 0xfa, 0x9d, 0x3f, 0x80, 0xae, 0xdb, 0xbd,
//   0xe3, 0x90, 0xf6, 0x3e, 0xd1, 0x28, 0x86, 0xbd, 0x4e, 0x09, 0xb3, 0x3e,
//   0xb7, 0x6a, 0x17, 0x3f, 0xd5, 0x6f, 0x95, 0x3e, 0xd5, 0x51, 0xea, 0x3d,
//   0x2c, 0xc6, 0x6c, 0x3d, 0x41, 0x8e, 0xa7, 0x3e, 0xd1, 0xa4, 0xad, 0x3e,
//   0x00, 0x25, 0x7b, 0xbd, 0x14, 0xe5, 0x01, 0x3e, 0xbe, 0xa1, 0x6f, 0x3e,
//   0xe7, 0x5c, 0x87, 0xbe, 0xc7, 0x9e, 0x92, 0x3e, 0x99, 0xb9, 0xd2, 0xbe,
//   0x08, 0x6a, 0x31, 0x3d, 0xeb, 0xe9, 0xaf, 0x3e, 0x5a, 0x05, 0xb7, 0x3e,
//   0x6b, 0x25, 0x78, 0x3e, 0xe0, 0x1e, 0xba, 0xbe, 0xfd, 0xd6, 0xbf, 0x3e,
//   0x7a, 0xd9, 0x24, 0x3f, 0xea, 0x05, 0x38, 0xbf, 0x08, 0x77, 0x17, 0xbe,
//   0x4a, 0x67, 0xff, 0x3e, 0x62, 0xf2, 0x99, 0x3e, 0x71, 0xb8, 0xd4, 0x3e,
//   0x6f, 0x51, 0x3c, 0x3e, 0x89, 0x0c, 0x63, 0x3e, 0x08, 0xec, 0xe2, 0xbe,
//   0x4b, 0x6c, 0xb6, 0x3d, 0xd9, 0x77, 0x23, 0xbf, 0xb0, 0x19, 0xdd, 0x3d,
//   0xe0, 0xfa, 0xe8, 0x3d, 0xa0, 0x9b, 0x9a, 0xbc, 0x2c, 0x47, 0xaf, 0x3e,
//   0x72, 0x23, 0x3b, 0xbe, 0x00, 0x12, 0x2b, 0xbe, 0xc0, 0xcd, 0x6e, 0xbd,
//   0x90, 0x3b, 0x4f, 0xbd, 0x21, 0xd9, 0x8e, 0x3e, 0xa8, 0x60, 0x2d, 0x3f,
//   0x0e, 0x12, 0xf1, 0xbe, 0xad, 0xfa, 0x3a, 0xbe, 0xc9, 0x6d, 0xc5, 0x3c,
//   0x9f, 0xd7, 0x99, 0xbb, 0x4a, 0xa2, 0x58, 0xbf, 0x98, 0x49, 0x80, 0x3f,
//   0x82, 0xaf, 0xc1, 0xbf, 0x4d, 0x15, 0x0e, 0xbf, 0x8c, 0xca, 0x17, 0x3f,
//   0xbd, 0x58, 0xdb, 0x3e, 0xda, 0x4f, 0x82, 0x3f, 0x36, 0x87, 0x00, 0xbe,
//   0xbe, 0x5f, 0x27, 0x3f, 0x37, 0xbf, 0x17, 0x3f, 0xa9, 0x19, 0x11, 0x3d,
//   0xd4, 0xc2, 0x6c, 0x3e, 0xc9, 0xde, 0x01, 0x3f, 0xc5, 0x02, 0xad, 0xbe,
//   0x83, 0xd5, 0x48, 0x3b, 0x34, 0xbd, 0x52, 0x3e, 0x1e, 0x51, 0x91, 0x3e,
//   0x51, 0x34, 0x33, 0xbe, 0x00, 0x00, 0x06, 0x00, 0x08, 0x00, 0x04, 0x00,
//   0x06, 0x00, 0x00, 0x00, 0x04, 0x00, 0x00, 0x00, 0xf0, 0x00, 0x00, 0x00,
//   0xf8, 0x8c, 0xb0, 0x3d, 0x50, 0x95, 0x0a, 0x3e, 0xfd, 0x6c, 0xdb, 0x3e,
//   0x7b, 0xe9, 0xd2, 0x3e, 0x9f, 0xdc, 0x08, 0x3e, 0x3e, 0x67, 0x7e, 0x3e,
//   0x9e, 0xf7, 0x8f, 0x3e, 0x4f, 0x66, 0x6d, 0xbe, 0x5d, 0x77, 0x12, 0xbe,
//   0xd7, 0xc2, 0x02, 0xbf, 0x35, 0x16, 0xf8, 0x3c, 0xd6, 0xd6, 0xa9, 0x3d,
//   0x05, 0x71, 0x07, 0xbf, 0x39, 0xf8, 0x80, 0xbe, 0xae, 0x04, 0x54, 0xbd,
//   0x8d, 0xb3, 0xd9, 0x3c, 0xe8, 0xbb, 0x8b, 0x3e, 0x29, 0x8c, 0x7f, 0x3e,
//   0x8e, 0xf0, 0xbe, 0x3d, 0x66, 0x11, 0x56, 0x3e, 0x07, 0xc0, 0x6e, 0x3d,
//   0x1a, 0x19, 0x3f, 0x3e, 0xc6, 0xc1, 0x0c, 0xbf, 0x69, 0x79, 0xe6, 0xbe,
//   0x47, 0x01, 0x7e, 0x3d, 0xa4, 0x18, 0xe2, 0xbd, 0x1a, 0x6d, 0xca, 0xbe,
//   0x71, 0x0b, 0x25, 0x3e, 0x86, 0x33, 0x8b, 0x3d, 0xe0, 0xd3, 0xd6, 0xbe,
//   0x53, 0x1c, 0x8d, 0x3f, 0x01, 0xe2, 0x2d, 0xbf, 0x33, 0xf5, 0xb8, 0xbe,
//   0x5f, 0x3c, 0xcc, 0x3e, 0x1c, 0x4c, 0x22, 0x3f, 0xa5, 0xf9, 0xaf, 0x3d,
//   0x58, 0x56, 0xd7, 0xbe, 0x96, 0xbf, 0xae, 0xbe, 0xbd, 0xe7, 0xf8, 0x3d,
//   0xff, 0x43, 0xa2, 0x3e, 0x66, 0xff, 0x0e, 0xbf, 0x95, 0xda, 0x7b, 0xbf,
//   0x18, 0x47, 0x03, 0x3f, 0x40, 0x19, 0xb0, 0x3e, 0x49, 0x7b, 0x06, 0xbe,
//   0x72, 0xcb, 0xc6, 0x3e, 0xfc, 0xfb, 0x0a, 0xbe, 0x21, 0xd2, 0x70, 0x3f,
//   0x76, 0x66, 0x2c, 0x3f, 0x6e, 0x6b, 0x1b, 0xbf, 0xad, 0x0b, 0xd6, 0xbd,
//   0x9b, 0xd2, 0xa7, 0x3e, 0x15, 0x40, 0x05, 0x3e, 0x43, 0x46, 0x91, 0x3e,
//   0x68, 0x05, 0x74, 0xbf, 0x66, 0x58, 0x22, 0xbf, 0x58, 0x2b, 0xb7, 0x3d,
//   0x52, 0x0f, 0x52, 0xbf, 0x39, 0xf4, 0x88, 0x3f, 0x1e, 0x73, 0xf5, 0xbd,
//   0x20, 0xf7, 0xff, 0xff, 0x24, 0xf7, 0xff, 0xff, 0x0f, 0x00, 0x00, 0x00,
//   0x4d, 0x4c, 0x49, 0x52, 0x20, 0x43, 0x6f, 0x6e, 0x76, 0x65, 0x72, 0x74,
//   0x65, 0x64, 0x2e, 0x00, 0x01, 0x00, 0x00, 0x00, 0x14, 0x00, 0x00, 0x00,
//   0x00, 0x00, 0x0e, 0x00, 0x18, 0x00, 0x14, 0x00, 0x10, 0x00, 0x0c, 0x00,
//   0x08, 0x00, 0x04, 0x00, 0x0e, 0x00, 0x00, 0x00, 0x14, 0x00, 0x00, 0x00,
//   0x1c, 0x00, 0x00, 0x00, 0x54, 0x01, 0x00, 0x00, 0x58, 0x01, 0x00, 0x00,
//   0x5c, 0x01, 0x00, 0x00, 0x04, 0x00, 0x00, 0x00, 0x6d, 0x61, 0x69, 0x6e,
//   0x00, 0x00, 0x00, 0x00, 0x05, 0x00, 0x00, 0x00, 0xf8, 0x00, 0x00, 0x00,
//   0xb0, 0x00, 0x00, 0x00, 0x78, 0x00, 0x00, 0x00, 0x34, 0x00, 0x00, 0x00,
//   0x10, 0x00, 0x00, 0x00, 0x00, 0x00, 0x0a, 0x00, 0x10, 0x00, 0x0c, 0x00,
//   0x08, 0x00, 0x04, 0x00, 0x0a, 0x00, 0x00, 0x00, 0x0c, 0x00, 0x00, 0x00,
//   0x10, 0x00, 0x00, 0x00, 0x01, 0x00, 0x00, 0x00, 0x01, 0x00, 0x00, 0x00,
//   0x0d, 0x00, 0x00, 0x00, 0x01, 0x00, 0x00, 0x00, 0x0c, 0x00, 0x00, 0x00,
//   0x56, 0xff, 0xff, 0xff, 0x1c, 0x00, 0x00, 0x00, 0x00, 0x00, 0x00, 0x08,
//   0x1c, 0x00, 0x00, 0x00, 0x20, 0x00, 0x00, 0x00, 0x00, 0x00, 0x0a, 0x00,
//   0x08, 0x00, 0x00, 0x00, 0x00, 0x00, 0x07, 0x00, 0x0a, 0x00, 0x00, 0x00,
//   0x00, 0x00, 0x00, 0x01, 0x01, 0x00, 0x00, 0x00, 0x0c, 0x00, 0x00, 0x00,
//   0x03, 0x00, 0x00, 0x00, 0x0b, 0x00, 0x00, 0x00, 0x01, 0x00, 0x00, 0x00,
//   0x07, 0x00, 0x00, 0x00, 0x96, 0xff, 0xff, 0xff, 0x10, 0x00, 0x00, 0x00,
//   0x00, 0x00, 0x00, 0x08, 0x10, 0x00, 0x00, 0x00, 0x14, 0x00, 0x00, 0x00,
//   0x86, 0xff, 0xff, 0xff, 0x00, 0x00, 0x01, 0x01, 0x01, 0x00, 0x00, 0x00,
//   0x0b, 0x00, 0x00, 0x00, 0x03, 0x00, 0x00, 0x00, 0x0a, 0x00, 0x00, 0x00,
//   0x02, 0x00, 0x00, 0x00, 0x06, 0x00, 0x00, 0x00, 0xca, 0xff, 0xff, 0xff,
//   0x10, 0x00, 0x00, 0x00, 0x00, 0x00, 0x00, 0x08, 0x10, 0x00, 0x00, 0x00,
//   0x14, 0x00, 0x00, 0x00, 0xba, 0xff, 0xff, 0xff, 0x00, 0x00, 0x01, 0x01,
//   0x01, 0x00, 0x00, 0x00, 0x0a, 0x00, 0x00, 0x00, 0x03, 0x00, 0x00, 0x00,
//   0x09, 0x00, 0x00, 0x00, 0x03, 0x00, 0x00, 0x00, 0x05, 0x00, 0x00, 0x00,
//   0x00, 0x00, 0x0e, 0x00, 0x16, 0x00, 0x00, 0x00, 0x10, 0x00, 0x0c, 0x00,
//   0x0b, 0x00, 0x04, 0x00, 0x0e, 0x00, 0x00, 0x00, 0x1c, 0x00, 0x00, 0x00,
//   0x00, 0x00, 0x00, 0x08, 0x1c, 0x00, 0x00, 0x00, 0x20, 0x00, 0x00, 0x00,
//   0x00, 0x00, 0x0a, 0x00, 0x08, 0x00, 0x07, 0x00, 0x00, 0x00, 0x06, 0x00,
//   0x0a, 0x00, 0x00, 0x00, 0x00, 0x00, 0x01, 0x01, 0x01, 0x00, 0x00, 0x00,
//   0x09, 0x00, 0x00, 0x00, 0x03, 0x00, 0x00, 0x00, 0x00, 0x00, 0x00, 0x00,
//   0x08, 0x00, 0x00, 0x00, 0x04, 0x00, 0x00, 0x00, 0x01, 0x00, 0x00, 0x00,
//   0x0d, 0x00, 0x00, 0x00, 0x01, 0x00, 0x00, 0x00, 0x00, 0x00, 0x00, 0x00,
//   0x0e, 0x00, 0x00, 0x00, 0x0c, 0x07, 0x00, 0x00, 0xb4, 0x06, 0x00, 0x00,
//   0x5c, 0x06, 0x00, 0x00, 0x1c, 0x06, 0x00, 0x00, 0xa8, 0x05, 0x00, 0x00,
//   0x34, 0x05, 0x00, 0x00, 0xc0, 0x04, 0x00, 0x00, 0x4c, 0x04, 0x00, 0x00,
//   0xe4, 0x03, 0x00, 0x00, 0xf8, 0x02, 0x00, 0x00, 0x0c, 0x02, 0x00, 0x00,
//   0x20, 0x01, 0x00, 0x00, 0x68, 0x00, 0x00, 0x00, 0x04, 0x00, 0x00, 0x00,
//   0x42, 0xf9, 0xff, 0xff, 0x00, 0x00, 0x00, 0x01, 0x14, 0x00, 0x00, 0x00,
//   0x20, 0x00, 0x00, 0x00, 0x20, 0x00, 0x00, 0x00, 0x0e, 0x00, 0x00, 0x00,
//   0x38, 0x00, 0x00, 0x00, 0x03, 0x00, 0x00, 0x00, 0xff, 0xff, 0xff, 0xff,
//   0x2c, 0x01, 0x00, 0x00, 0x06, 0x00, 0x00, 0x00, 0x2c, 0xf9, 0xff, 0xff,
//   0x1b, 0x00, 0x00, 0x00, 0x53, 0x74, 0x61, 0x74, 0x65, 0x66, 0x75, 0x6c,
//   0x50, 0x61, 0x72, 0x74, 0x69, 0x74, 0x69, 0x6f, 0x6e, 0x65, 0x64, 0x43,
//   0x61, 0x6c, 0x6c, 0x5f, 0x31, 0x3a, 0x30, 0x00, 0x03, 0x00, 0x00, 0x00,
//   0x01, 0x00, 0x00, 0x00, 0x2c, 0x01, 0x00, 0x00, 0x06, 0x00, 0x00, 0x00,
//   0xa2, 0xf9, 0xff, 0xff, 0x00, 0x00, 0x00, 0x01, 0x14, 0x00, 0x00, 0x00,
//   0x20, 0x00, 0x00, 0x00, 0x20, 0x00, 0x00, 0x00, 0x0d, 0x00, 0x00, 0x00,
//   0x8c, 0x00, 0x00, 0x00, 0x03, 0x00, 0x00, 0x00, 0xff, 0xff, 0xff, 0xff,
//   0x2c, 0x01, 0x00, 0x00, 0x06, 0x00, 0x00, 0x00, 0x8c, 0xf9, 0xff, 0xff,
//   0x6c, 0x00, 0x00, 0x00, 0x61, 0x6e, 0x6f, 0x6d, 0x61, 0x6c, 0x79, 0x5f,
//   0x64, 0x65, 0x74, 0x65, 0x63, 0x74, 0x6f, 0x72, 0x5f, 0x33, 0x5f, 0x31,
//   0x2f, 0x73, 0x65, 0x71, 0x75, 0x65, 0x6e, 0x74, 0x69, 0x61, 0x6c, 0x5f,
//   0x37, 0x5f, 0x31, 0x2f, 0x64, 0x65, 0x6e, 0x73, 0x65, 0x5f, 0x31, 0x35,
//   0x5f, 0x31, 0x2f, 0x4d, 0x61, 0x74, 0x4d, 0x75, 0x6c, 0x3b, 0x61, 0x6e,
//   0x6f, 0x6d, 0x61, 0x6c, 0x79, 0x5f, 0x64, 0x65, 0x74, 0x65, 0x63, 0x74,
//   0x6f, 0x72, 0x5f, 0x33, 0x5f, 0x31, 0x2f, 0x73, 0x65, 0x71, 0x75, 0x65,
//   0x6e, 0x74, 0x69, 0x61, 0x6c, 0x5f, 0x37, 0x5f, 0x31, 0x2f, 0x64, 0x65,
//   0x6e, 0x73, 0x65, 0x5f, 0x31, 0x35, 0x5f, 0x31, 0x2f, 0x42, 0x69, 0x61,
//   0x73, 0x41, 0x64, 0x64, 0x00, 0x00, 0x00, 0x00, 0x03, 0x00, 0x00, 0x00,
//   0x01, 0x00, 0x00, 0x00, 0x2c, 0x01, 0x00, 0x00, 0x06, 0x00, 0x00, 0x00,
//   0x56, 0xfa, 0xff, 0xff, 0x00, 0x00, 0x00, 0x01, 0x14, 0x00, 0x00, 0x00,
//   0x20, 0x00, 0x00, 0x00, 0x20, 0x00, 0x00, 0x00, 0x0c, 0x00, 0x00, 0x00,
//   0xc0, 0x00, 0x00, 0x00, 0x03, 0x00, 0x00, 0x00, 0xff, 0xff, 0xff, 0xff,
//   0x2c, 0x01, 0x00, 0x00, 0x0a, 0x00, 0x00, 0x00, 0x40, 0xfa, 0xff, 0xff,
//   0xa0, 0x00, 0x00, 0x00, 0x61, 0x6e, 0x6f, 0x6d, 0x61, 0x6c, 0x79, 0x5f,
//   0x64, 0x65, 0x74, 0x65, 0x63, 0x74, 0x6f, 0x72, 0x5f, 0x33, 0x5f, 0x31,
//   0x2f, 0x73, 0x65, 0x71, 0x75, 0x65, 0x6e, 0x74, 0x69, 0x61, 0x6c, 0x5f,
//   0x37, 0x5f, 0x31, 0x2f, 0x64, 0x65, 0x6e, 0x73, 0x65, 0x5f, 0x31, 0x34,
//   0x5f, 0x31, 0x2f, 0x4d, 0x61, 0x74, 0x4d, 0x75, 0x6c, 0x3b, 0x61, 0x6e,
//   0x6f, 0x6d, 0x61, 0x6c, 0x79, 0x5f, 0x64, 0x65, 0x74, 0x65, 0x63, 0x74,
//   0x6f, 0x72, 0x5f, 0x33, 0x5f, 0x31, 0x2f, 0x73, 0x65, 0x71, 0x75, 0x65,
//   0x6e, 0x74, 0x69, 0x61, 0x6c, 0x5f, 0x37, 0x5f, 0x31, 0x2f, 0x64, 0x65,
//   0x6e, 0x73, 0x65, 0x5f, 0x31, 0x34, 0x5f, 0x31, 0x2f, 0x52, 0x65, 0x6c,
//   0x75, 0x3b, 0x61, 0x6e, 0x6f, 0x6d, 0x61, 0x6c, 0x79, 0x5f, 0x64, 0x65,
//   0x74, 0x65, 0x63, 0x74, 0x6f, 0x72, 0x5f, 0x33, 0x5f, 0x31, 0x2f, 0x73,
//   0x65, 0x71, 0x75, 0x65, 0x6e, 0x74, 0x69, 0x61, 0x6c, 0x5f, 0x37, 0x5f,
//   0x31, 0x2f, 0x64, 0x65, 0x6e, 0x73, 0x65, 0x5f, 0x31, 0x34, 0x5f, 0x31,
//   0x2f, 0x42, 0x69, 0x61, 0x73, 0x41, 0x64, 0x64, 0x00, 0x00, 0x00, 0x00,
//   0x03, 0x00, 0x00, 0x00, 0x01, 0x00, 0x00, 0x00, 0x2c, 0x01, 0x00, 0x00,
//   0x0a, 0x00, 0x00, 0x00, 0x3e, 0xfb, 0xff, 0xff, 0x00, 0x00, 0x00, 0x01,
//   0x14, 0x00, 0x00, 0x00, 0x20, 0x00, 0x00, 0x00, 0x20, 0x00, 0x00, 0x00,
//   0x0b, 0x00, 0x00, 0x00, 0xc0, 0x00, 0x00, 0x00, 0x03, 0x00, 0x00, 0x00,
//   0xff, 0xff, 0xff, 0xff, 0x2c, 0x01, 0x00, 0x00, 0x08, 0x00, 0x00, 0x00,
//   0x28, 0xfb, 0xff, 0xff, 0xa0, 0x00, 0x00, 0x00, 0x61, 0x6e, 0x6f, 0x6d,
//   0x61, 0x6c, 0x79, 0x5f, 0x64, 0x65, 0x74, 0x65, 0x63, 0x74, 0x6f, 0x72,
//   0x5f, 0x33, 0x5f, 0x31, 0x2f, 0x73, 0x65, 0x71, 0x75, 0x65, 0x6e, 0x74,
//   0x69, 0x61, 0x6c, 0x5f, 0x36, 0x5f, 0x31, 0x2f, 0x64, 0x65, 0x6e, 0x73,
//   0x65, 0x5f, 0x31, 0x33, 0x5f, 0x31, 0x2f, 0x4d, 0x61, 0x74, 0x4d, 0x75,
//   0x6c, 0x3b, 0x61, 0x6e, 0x6f, 0x6d, 0x61, 0x6c, 0x79, 0x5f, 0x64, 0x65,
//   0x74, 0x65, 0x63, 0x74, 0x6f, 0x72, 0x5f, 0x33, 0x5f, 0x31, 0x2f, 0x73,
//   0x65, 0x71, 0x75, 0x65, 0x6e, 0x74, 0x69, 0x61, 0x6c, 0x5f, 0x36, 0x5f,
//   0x31, 0x2f, 0x64, 0x65, 0x6e, 0x73, 0x65, 0x5f, 0x31, 0x33, 0x5f, 0x31,
//   0x2f, 0x52, 0x65, 0x6c, 0x75, 0x3b, 0x61, 0x6e, 0x6f, 0x6d, 0x61, 0x6c,
//   0x79, 0x5f, 0x64, 0x65, 0x74, 0x65, 0x63, 0x74, 0x6f, 0x72, 0x5f, 0x33,
//   0x5f, 0x31, 0x2f, 0x73, 0x65, 0x71, 0x75, 0x65, 0x6e, 0x74, 0x69, 0x61,
//   0x6c, 0x5f, 0x36, 0x5f, 0x31, 0x2f, 0x64, 0x65, 0x6e, 0x73, 0x65, 0x5f,
//   0x31, 0x33, 0x5f, 0x31, 0x2f, 0x42, 0x69, 0x61, 0x73, 0x41, 0x64, 0x64,
//   0x00, 0x00, 0x00, 0x00, 0x03, 0x00, 0x00, 0x00, 0x01, 0x00, 0x00, 0x00,
//   0x2c, 0x01, 0x00, 0x00, 0x08, 0x00, 0x00, 0x00, 0x26, 0xfc, 0xff, 0xff,
//   0x00, 0x00, 0x00, 0x01, 0x14, 0x00, 0x00, 0x00, 0x20, 0x00, 0x00, 0x00,
//   0x20, 0x00, 0x00, 0x00, 0x0a, 0x00, 0x00, 0x00, 0xc0, 0x00, 0x00, 0x00,
//   0x03, 0x00, 0x00, 0x00, 0xff, 0xff, 0xff, 0xff, 0x2c, 0x01, 0x00, 0x00,
//   0x0a, 0x00, 0x00, 0x00, 0x10, 0xfc, 0xff, 0xff, 0xa0, 0x00, 0x00, 0x00,
//   0x61, 0x6e, 0x6f, 0x6d, 0x61, 0x6c, 0x79, 0x5f, 0x64, 0x65, 0x74, 0x65,
//   0x63, 0x74, 0x6f, 0x72, 0x5f, 0x33, 0x5f, 0x31, 0x2f, 0x73, 0x65, 0x71,
//   0x75, 0x65, 0x6e, 0x74, 0x69, 0x61, 0x6c, 0x5f, 0x36, 0x5f, 0x31, 0x2f,
//   0x64, 0x65, 0x6e, 0x73, 0x65, 0x5f, 0x31, 0x32, 0x5f, 0x31, 0x2f, 0x4d,
//   0x61, 0x74, 0x4d, 0x75, 0x6c, 0x3b, 0x61, 0x6e, 0x6f, 0x6d, 0x61, 0x6c,
//   0x79, 0x5f, 0x64, 0x65, 0x74, 0x65, 0x63, 0x74, 0x6f, 0x72, 0x5f, 0x33,
//   0x5f, 0x31, 0x2f, 0x73, 0x65, 0x71, 0x75, 0x65, 0x6e, 0x74, 0x69, 0x61,
//   0x6c, 0x5f, 0x36, 0x5f, 0x31, 0x2f, 0x64, 0x65, 0x6e, 0x73, 0x65, 0x5f,
//   0x31, 0x32, 0x5f, 0x31, 0x2f, 0x52, 0x65, 0x6c, 0x75, 0x3b, 0x61, 0x6e,
//   0x6f, 0x6d, 0x61, 0x6c, 0x79, 0x5f, 0x64, 0x65, 0x74, 0x65, 0x63, 0x74,
//   0x6f, 0x72, 0x5f, 0x33, 0x5f, 0x31, 0x2f, 0x73, 0x65, 0x71, 0x75, 0x65,
//   0x6e, 0x74, 0x69, 0x61, 0x6c, 0x5f, 0x36, 0x5f, 0x31, 0x2f, 0x64, 0x65,
//   0x6e, 0x73, 0x65, 0x5f, 0x31, 0x32, 0x5f, 0x31, 0x2f, 0x42, 0x69, 0x61,
//   0x73, 0x41, 0x64, 0x64, 0x00, 0x00, 0x00, 0x00, 0x03, 0x00, 0x00, 0x00,
//   0x01, 0x00, 0x00, 0x00, 0x2c, 0x01, 0x00, 0x00, 0x0a, 0x00, 0x00, 0x00,
//   0x62, 0xfd, 0xff, 0xff, 0x00, 0x00, 0x00, 0x01, 0x10, 0x00, 0x00, 0x00,
//   0x10, 0x00, 0x00, 0x00, 0x09, 0x00, 0x00, 0x00, 0x44, 0x00, 0x00, 0x00,
//   0xe4, 0xfc, 0xff, 0xff, 0x35, 0x00, 0x00, 0x00, 0x61, 0x6e, 0x6f, 0x6d,
//   0x61, 0x6c, 0x79, 0x5f, 0x64, 0x65, 0x74, 0x65, 0x63, 0x74, 0x6f, 0x72,
//   0x5f, 0x33, 0x5f, 0x31, 0x2f, 0x73, 0x65, 0x71, 0x75, 0x65, 0x6e, 0x74,
//   0x69, 0x61, 0x6c, 0x5f, 0x36, 0x5f, 0x31, 0x2f, 0x64, 0x65, 0x6e, 0x73,
//   0x65, 0x5f, 0x31, 0x32, 0x5f, 0x31, 0x2f, 0x4d, 0x61, 0x74, 0x4d, 0x75,
//   0x6c, 0x00, 0x00, 0x00, 0x02, 0x00, 0x00, 0x00, 0x0a, 0x00, 0x00, 0x00,
//   0x06, 0x00, 0x00, 0x00, 0xc6, 0xfd, 0xff, 0xff, 0x00, 0x00, 0x00, 0x01,
//   0x10, 0x00, 0x00, 0x00, 0x10, 0x00, 0x00, 0x00, 0x08, 0x00, 0x00, 0x00,
//   0x54, 0x00, 0x00, 0x00, 0x48, 0xfd, 0xff, 0xff, 0x45, 0x00, 0x00, 0x00,
//   0x61, 0x6e, 0x6f, 0x6d, 0x61, 0x6c, 0x79, 0x5f, 0x64, 0x65, 0x74, 0x65,
//   0x63, 0x74, 0x6f, 0x72, 0x5f, 0x33, 0x5f, 0x31, 0x2f, 0x73, 0x65, 0x71,
//   0x75, 0x65, 0x6e, 0x74, 0x69, 0x61, 0x6c, 0x5f, 0x37, 0x5f, 0x31, 0x2f,
//   0x64, 0x65, 0x6e, 0x73, 0x65, 0x5f, 0x31, 0x35, 0x5f, 0x31, 0x2f, 0x42,
//   0x69, 0x61, 0x73, 0x41, 0x64, 0x64, 0x2f, 0x52, 0x65, 0x61, 0x64, 0x56,
//   0x61, 0x72, 0x69, 0x61, 0x62, 0x6c, 0x65, 0x4f, 0x70, 0x00, 0x00, 0x00,
//   0x01, 0x00, 0x00, 0x00, 0x06, 0x00, 0x00, 0x00, 0x36, 0xfe, 0xff, 0xff,
//   0x00, 0x00, 0x00, 0x01, 0x10, 0x00, 0x00, 0x00, 0x10, 0x00, 0x00, 0x00,
//   0x07, 0x00, 0x00, 0x00, 0x54, 0x00, 0x00, 0x00, 0xb8, 0xfd, 0xff, 0xff,
//   0x45, 0x00, 0x00, 0x00, 0x61, 0x6e, 0x6f, 0x6d, 0x61, 0x6c, 0x79, 0x5f,
//   0x64, 0x65, 0x74, 0x65, 0x63, 0x74, 0x6f, 0x72, 0x5f, 0x33, 0x5f, 0x31,
//   0x2f, 0x73, 0x65, 0x71, 0x75, 0x65, 0x6e, 0x74, 0x69, 0x61, 0x6c, 0x5f,
//   0x37, 0x5f, 0x31, 0x2f, 0x64, 0x65, 0x6e, 0x73, 0x65, 0x5f, 0x31, 0x34,
//   0x5f, 0x31, 0x2f, 0x42, 0x69, 0x61, 0x73, 0x41, 0x64, 0x64, 0x2f, 0x52,
//   0x65, 0x61, 0x64, 0x56, 0x61, 0x72, 0x69, 0x61, 0x62, 0x6c, 0x65, 0x4f,
//   0x70, 0x00, 0x00, 0x00, 0x01, 0x00, 0x00, 0x00, 0x0a, 0x00, 0x00, 0x00,
//   0xa6, 0xfe, 0xff, 0xff, 0x00, 0x00, 0x00, 0x01, 0x10, 0x00, 0x00, 0x00,
//   0x10, 0x00, 0x00, 0x00, 0x06, 0x00, 0x00, 0x00, 0x54, 0x00, 0x00, 0x00,
//   0x28, 0xfe, 0xff, 0xff, 0x45, 0x00, 0x00, 0x00, 0x61, 0x6e, 0x6f, 0x6d,
//   0x61, 0x6c, 0x79, 0x5f, 0x64, 0x65, 0x74, 0x65, 0x63, 0x74, 0x6f, 0x72,
//   0x5f, 0x33, 0x5f, 0x31, 0x2f, 0x73, 0x65, 0x71, 0x75, 0x65, 0x6e, 0x74,
//   0x69, 0x61, 0x6c, 0x5f, 0x36, 0x5f, 0x31, 0x2f, 0x64, 0x65, 0x6e, 0x73,
//   0x65, 0x5f, 0x31, 0x33, 0x5f, 0x31, 0x2f, 0x42, 0x69, 0x61, 0x73, 0x41,
//   0x64, 0x64, 0x2f, 0x52, 0x65, 0x61, 0x64, 0x56, 0x61, 0x72, 0x69, 0x61,
//   0x62, 0x6c, 0x65, 0x4f, 0x70, 0x00, 0x00, 0x00, 0x01, 0x00, 0x00, 0x00,
//   0x08, 0x00, 0x00, 0x00, 0x16, 0xff, 0xff, 0xff, 0x00, 0x00, 0x00, 0x01,
//   0x10, 0x00, 0x00, 0x00, 0x10, 0x00, 0x00, 0x00, 0x05, 0x00, 0x00, 0x00,
//   0x54, 0x00, 0x00, 0x00, 0x98, 0xfe, 0xff, 0xff, 0x45, 0x00, 0x00, 0x00,
//   0x61, 0x6e, 0x6f, 0x6d, 0x61, 0x6c, 0x79, 0x5f, 0x64, 0x65, 0x74, 0x65,
//   0x63, 0x74, 0x6f, 0x72, 0x5f, 0x33, 0x5f, 0x31, 0x2f, 0x73, 0x65, 0x71,
//   0x75, 0x65, 0x6e, 0x74, 0x69, 0x61, 0x6c, 0x5f, 0x36, 0x5f, 0x31, 0x2f,
//   0x64, 0x65, 0x6e, 0x73, 0x65, 0x5f, 0x31, 0x32, 0x5f, 0x31, 0x2f, 0x42,
//   0x69, 0x61, 0x73, 0x41, 0x64, 0x64, 0x2f, 0x52, 0x65, 0x61, 0x64, 0x56,
//   0x61, 0x72, 0x69, 0x61, 0x62, 0x6c, 0x65, 0x4f, 0x70, 0x00, 0x00, 0x00,
//   0x01, 0x00, 0x00, 0x00, 0x0a, 0x00, 0x00, 0x00, 0x86, 0xff, 0xff, 0xff,
//   0x00, 0x00, 0x00, 0x01, 0x10, 0x00, 0x00, 0x00, 0x10, 0x00, 0x00, 0x00,
//   0x04, 0x00, 0x00, 0x00, 0x1c, 0x00, 0x00, 0x00, 0x08, 0xff, 0xff, 0xff,
//   0x0f, 0x00, 0x00, 0x00, 0x61, 0x72, 0x69, 0x74, 0x68, 0x2e, 0x63, 0x6f,
//   0x6e, 0x73, 0x74, 0x61, 0x6e, 0x74, 0x32, 0x00, 0x02, 0x00, 0x00, 0x00,
//   0x08, 0x00, 0x00, 0x00, 0x0a, 0x00, 0x00, 0x00, 0xc2, 0xff, 0xff, 0xff,
//   0x00, 0x00, 0x00, 0x01, 0x10, 0x00, 0x00, 0x00, 0x10, 0x00, 0x00, 0x00,
//   0x03, 0x00, 0x00, 0x00, 0x1c, 0x00, 0x00, 0x00, 0x44, 0xff, 0xff, 0xff,
//   0x0f, 0x00, 0x00, 0x00, 0x61, 0x72, 0x69, 0x74, 0x68, 0x2e, 0x63, 0x6f,
//   0x6e, 0x73, 0x74, 0x61, 0x6e, 0x74, 0x31, 0x00, 0x02, 0x00, 0x00, 0x00,
//   0x0a, 0x00, 0x00, 0x00, 0x08, 0x00, 0x00, 0x00, 0x00, 0x00, 0x16, 0x00,
//   0x18, 0x00, 0x14, 0x00, 0x00, 0x00, 0x10, 0x00, 0x0c, 0x00, 0x08, 0x00,
//   0x00, 0x00, 0x00, 0x00, 0x00, 0x00, 0x07, 0x00, 0x16, 0x00, 0x00, 0x00,
//   0x00, 0x00, 0x00, 0x01, 0x10, 0x00, 0x00, 0x00, 0x10, 0x00, 0x00, 0x00,
//   0x02, 0x00, 0x00, 0x00, 0x1c, 0x00, 0x00, 0x00, 0x98, 0xff, 0xff, 0xff,
//   0x0e, 0x00, 0x00, 0x00, 0x61, 0x72, 0x69, 0x74, 0x68, 0x2e, 0x63, 0x6f,
//   0x6e, 0x73, 0x74, 0x61, 0x6e, 0x74, 0x00, 0x00, 0x02, 0x00, 0x00, 0x00,
//   0x06, 0x00, 0x00, 0x00, 0x0a, 0x00, 0x00, 0x00, 0x00, 0x00, 0x16, 0x00,
//   0x1c, 0x00, 0x18, 0x00, 0x00, 0x00, 0x14, 0x00, 0x10, 0x00, 0x0c, 0x00,
//   0x00, 0x00, 0x00, 0x00, 0x08, 0x00, 0x07, 0x00, 0x16, 0x00, 0x00, 0x00,
//   0x00, 0x00, 0x00, 0x01, 0x14, 0x00, 0x00, 0x00, 0x24, 0x00, 0x00, 0x00,
//   0x24, 0x00, 0x00, 0x00, 0x01, 0x00, 0x00, 0x00, 0x3c, 0x00, 0x00, 0x00,
//   0x03, 0x00, 0x00, 0x00, 0xff, 0xff, 0xff, 0xff, 0x2c, 0x01, 0x00, 0x00,
//   0x06, 0x00, 0x00, 0x00, 0x04, 0x00, 0x04, 0x00, 0x04, 0x00, 0x00, 0x00,
//   0x18, 0x00, 0x00, 0x00, 0x73, 0x65, 0x72, 0x76, 0x69, 0x6e, 0x67, 0x5f,
//   0x64, 0x65, 0x66, 0x61, 0x75, 0x6c, 0x74, 0x5f, 0x61, 0x72, 0x67, 0x73,
//   0x5f, 0x30, 0x3a, 0x30, 0x00, 0x00, 0x00, 0x00, 0x03, 0x00, 0x00, 0x00,
//   0x01, 0x00, 0x00, 0x00, 0x2c, 0x01, 0x00, 0x00, 0x06, 0x00, 0x00, 0x00,
//   0x02, 0x00, 0x00, 0x00, 0x2c, 0x00, 0x00, 0x00, 0x10, 0x00, 0x00, 0x00,
//   0x0c, 0x00, 0x0c, 0x00, 0x0b, 0x00, 0x00, 0x00, 0x00, 0x00, 0x04, 0x00,
//   0x0c, 0x00, 0x00, 0x00, 0x0e, 0x00, 0x00, 0x00, 0x00, 0x00, 0x00, 0x0e,
//   0x0c, 0x00, 0x10, 0x00, 0x0f, 0x00, 0x00, 0x00, 0x08, 0x00, 0x04, 0x00,
//   0x0c, 0x00, 0x00, 0x00, 0x09, 0x00, 0x00, 0x00, 0x05, 0x00, 0x00, 0x00,
//   0x00, 0x00, 0x00, 0x09
// };
// unsigned int cpr_training_model_len = 4240;





// Just gyro trained model 
// unsigned char cpr_training_model[] = {
//   0x1c, 0x00, 0x00, 0x00, 0x54, 0x46, 0x4c, 0x33, 0x14, 0x00, 0x20, 0x00,
//   0x1c, 0x00, 0x18, 0x00, 0x14, 0x00, 0x10, 0x00, 0x0c, 0x00, 0x00, 0x00,
//   0x08, 0x00, 0x04, 0x00, 0x14, 0x00, 0x00, 0x00, 0x1c, 0x00, 0x00, 0x00,
//   0x84, 0x00, 0x00, 0x00, 0xdc, 0x00, 0x00, 0x00, 0x18, 0x06, 0x00, 0x00,
//   0x28, 0x06, 0x00, 0x00, 0x30, 0x0f, 0x00, 0x00, 0x03, 0x00, 0x00, 0x00,
//   0x01, 0x00, 0x00, 0x00, 0x04, 0x00, 0x00, 0x00, 0x96, 0xf9, 0xff, 0xff,
//   0x0c, 0x00, 0x00, 0x00, 0x1c, 0x00, 0x00, 0x00, 0x3c, 0x00, 0x00, 0x00,
//   0x0f, 0x00, 0x00, 0x00, 0x73, 0x65, 0x72, 0x76, 0x69, 0x6e, 0x67, 0x5f,
//   0x64, 0x65, 0x66, 0x61, 0x75, 0x6c, 0x74, 0x00, 0x01, 0x00, 0x00, 0x00,
//   0x04, 0x00, 0x00, 0x00, 0x98, 0xff, 0xff, 0xff, 0x0d, 0x00, 0x00, 0x00,
//   0x04, 0x00, 0x00, 0x00, 0x08, 0x00, 0x00, 0x00, 0x6f, 0x75, 0x74, 0x70,
//   0x75, 0x74, 0x5f, 0x30, 0x00, 0x00, 0x00, 0x00, 0x01, 0x00, 0x00, 0x00,
//   0x04, 0x00, 0x00, 0x00, 0xe2, 0xfa, 0xff, 0xff, 0x04, 0x00, 0x00, 0x00,
//   0x06, 0x00, 0x00, 0x00, 0x61, 0x72, 0x67, 0x73, 0x5f, 0x30, 0x00, 0x00,
//   0x02, 0x00, 0x00, 0x00, 0x34, 0x00, 0x00, 0x00, 0x04, 0x00, 0x00, 0x00,
//   0xdc, 0xff, 0xff, 0xff, 0x10, 0x00, 0x00, 0x00, 0x04, 0x00, 0x00, 0x00,
//   0x13, 0x00, 0x00, 0x00, 0x43, 0x4f, 0x4e, 0x56, 0x45, 0x52, 0x53, 0x49,
//   0x4f, 0x4e, 0x5f, 0x4d, 0x45, 0x54, 0x41, 0x44, 0x41, 0x54, 0x41, 0x00,
//   0x08, 0x00, 0x0c, 0x00, 0x08, 0x00, 0x04, 0x00, 0x08, 0x00, 0x00, 0x00,
//   0x0f, 0x00, 0x00, 0x00, 0x04, 0x00, 0x00, 0x00, 0x13, 0x00, 0x00, 0x00,
//   0x6d, 0x69, 0x6e, 0x5f, 0x72, 0x75, 0x6e, 0x74, 0x69, 0x6d, 0x65, 0x5f,
//   0x76, 0x65, 0x72, 0x73, 0x69, 0x6f, 0x6e, 0x00, 0x11, 0x00, 0x00, 0x00,
//   0x38, 0x05, 0x00, 0x00, 0x30, 0x05, 0x00, 0x00, 0xa8, 0x04, 0x00, 0x00,
//   0x50, 0x03, 0x00, 0x00, 0x00, 0x02, 0x00, 0x00, 0xc8, 0x01, 0x00, 0x00,
//   0x98, 0x01, 0x00, 0x00, 0x60, 0x01, 0x00, 0x00, 0x44, 0x01, 0x00, 0x00,
//   0xbc, 0x00, 0x00, 0x00, 0xb4, 0x00, 0x00, 0x00, 0xac, 0x00, 0x00, 0x00,
//   0xa4, 0x00, 0x00, 0x00, 0x9c, 0x00, 0x00, 0x00, 0x94, 0x00, 0x00, 0x00,
//   0x74, 0x00, 0x00, 0x00, 0x04, 0x00, 0x00, 0x00, 0x9a, 0xfb, 0xff, 0xff,
//   0x04, 0x00, 0x00, 0x00, 0x60, 0x00, 0x00, 0x00, 0x10, 0x00, 0x00, 0x00,
//   0x00, 0x00, 0x00, 0x00, 0x08, 0x00, 0x0e, 0x00, 0x08, 0x00, 0x04, 0x00,
//   0x08, 0x00, 0x00, 0x00, 0x10, 0x00, 0x00, 0x00, 0x24, 0x00, 0x00, 0x00,
//   0x00, 0x00, 0x06, 0x00, 0x08, 0x00, 0x04, 0x00, 0x06, 0x00, 0x00, 0x00,
//   0x04, 0x00, 0x00, 0x00, 0x00, 0x00, 0x00, 0x00, 0x0c, 0x00, 0x18, 0x00,
//   0x14, 0x00, 0x10, 0x00, 0x0c, 0x00, 0x04, 0x00, 0x0c, 0x00, 0x00, 0x00,
//   0xe8, 0x0b, 0x6f, 0x2e, 0x43, 0xba, 0x5e, 0x1e, 0x01, 0x00, 0x00, 0x00,
//   0x02, 0x00, 0x00, 0x00, 0x04, 0x00, 0x00, 0x00, 0x06, 0x00, 0x00, 0x00,
//   0x32, 0x2e, 0x31, 0x39, 0x2e, 0x30, 0x00, 0x00, 0x06, 0xfc, 0xff, 0xff,
//   0x04, 0x00, 0x00, 0x00, 0x10, 0x00, 0x00, 0x00, 0x32, 0x2e, 0x30, 0x2e,
//   0x30, 0x00, 0x00, 0x00, 0x00, 0x00, 0x00, 0x00, 0x00, 0x00, 0x00, 0x00,
//   0xa8, 0xf2, 0xff, 0xff, 0xac, 0xf2, 0xff, 0xff, 0xb0, 0xf2, 0xff, 0xff,
//   0xb4, 0xf2, 0xff, 0xff, 0xb8, 0xf2, 0xff, 0xff, 0x36, 0xfc, 0xff, 0xff,
//   0x04, 0x00, 0x00, 0x00, 0x78, 0x00, 0x00, 0x00, 0x46, 0x13, 0x29, 0xbe,
//   0xf3, 0x98, 0x22, 0x3f, 0x67, 0xf1, 0xd5, 0x3e, 0xcf, 0xd5, 0x78, 0x3f,
//   0x99, 0xa5, 0x72, 0x3a, 0xee, 0x5d, 0x1e, 0x3f, 0xfe, 0xbb, 0x0c, 0xbf,
//   0x1e, 0xff, 0xf4, 0xbd, 0x3d, 0x43, 0x92, 0x3e, 0x2f, 0x04, 0x8d, 0xbe,
//   0xf0, 0x7b, 0xac, 0xbe, 0x1c, 0x9e, 0x0a, 0xbf, 0xa3, 0x4e, 0x76, 0x3f,
//   0xae, 0x4d, 0x21, 0x3f, 0xb9, 0xcc, 0xcb, 0xbe, 0xd6, 0x0b, 0xe4, 0x3e,
//   0xda, 0xb5, 0x00, 0xbf, 0x75, 0xa8, 0x05, 0x3f, 0x49, 0xce, 0xe6, 0xbd,
//   0x40, 0xde, 0xf5, 0x3e, 0xff, 0xde, 0x59, 0x3e, 0xfa, 0xa7, 0x00, 0x3f,
//   0xce, 0x3a, 0xb1, 0x3b, 0xb5, 0x14, 0xa0, 0xbe, 0xb8, 0xed, 0x72, 0x3e,
//   0x5b, 0xf0, 0xdf, 0x3e, 0x96, 0x6a, 0x84, 0x3f, 0x69, 0x4e, 0xbc, 0xbc,
//   0x55, 0x6d, 0x32, 0x3f, 0x8b, 0x3b, 0x2d, 0xbd, 0xba, 0xfc, 0xff, 0xff,
//   0x04, 0x00, 0x00, 0x00, 0x0c, 0x00, 0x00, 0x00, 0x41, 0x02, 0x23, 0xbf,
//   0x4c, 0x7c, 0x45, 0x3f, 0xd8, 0x32, 0x5d, 0x3e, 0xd2, 0xfc, 0xff, 0xff,
//   0x04, 0x00, 0x00, 0x00, 0x28, 0x00, 0x00, 0x00, 0x72, 0xb0, 0xb8, 0x3d,
//   0xda, 0x99, 0xe1, 0xbd, 0xdb, 0x58, 0xf5, 0xbd, 0xb5, 0x5f, 0xb4, 0xbe,
//   0x1a, 0x9a, 0x20, 0xbe, 0x97, 0x53, 0x80, 0xbd, 0x9f, 0x02, 0x1c, 0x3f,
//   0xb6, 0xa3, 0x9d, 0x3e, 0x5c, 0x0c, 0x8b, 0xbe, 0x76, 0x4f, 0x0d, 0xbd,
//   0x06, 0xfd, 0xff, 0xff, 0x04, 0x00, 0x00, 0x00, 0x20, 0x00, 0x00, 0x00,
//   0xf7, 0x97, 0xd9, 0x3e, 0xe7, 0xbc, 0x1e, 0xbd, 0xbd, 0x91, 0x9a, 0xbd,
//   0x00, 0x00, 0x00, 0x00, 0x45, 0x5c, 0x85, 0xbc, 0xf1, 0x6e, 0xcd, 0x3c,
//   0x0e, 0xb3, 0x92, 0x3d, 0x74, 0x34, 0x9f, 0x3e, 0x32, 0xfd, 0xff, 0xff,
//   0x04, 0x00, 0x00, 0x00, 0x28, 0x00, 0x00, 0x00, 0xb0, 0x22, 0xaf, 0x3c,
//   0xed, 0xf3, 0xc9, 0xbe, 0x08, 0xd7, 0x5c, 0x3f, 0x00, 0x00, 0x00, 0x00,
//   0x37, 0x46, 0x3e, 0x3e, 0x78, 0xbd, 0xdd, 0x3e, 0x30, 0x6c, 0x6e, 0x3d,
//   0x7e, 0x37, 0xb7, 0x3e, 0x1a, 0x30, 0x1e, 0xbe, 0x38, 0xfe, 0x01, 0xbf,
//   0x66, 0xfd, 0xff, 0xff, 0x04, 0x00, 0x00, 0x00, 0x40, 0x01, 0x00, 0x00,
//   0xe4, 0x27, 0x07, 0xbf, 0xcc, 0x3d, 0xa3, 0xbe, 0x26, 0x70, 0x89, 0x3f,
//   0xa8, 0x91, 0x13, 0x3e, 0x41, 0xa0, 0xb1, 0x3e, 0x7d, 0x1b, 0x1f, 0x3f,
//   0x0b, 0x7d, 0xf1, 0xbe, 0x08, 0x4a, 0x7b, 0x3f, 0x12, 0xb0, 0x5d, 0xbe,
//   0xb4, 0xb0, 0x9d, 0xbf, 0x07, 0xe7, 0xa4, 0x3e, 0x83, 0x58, 0x0c, 0x3d,
//   0x82, 0x61, 0x1d, 0x3f, 0x78, 0x71, 0x11, 0x3e, 0x4d, 0x27, 0x16, 0x3e,
//   0x67, 0xba, 0x27, 0x3f, 0xbf, 0x97, 0x8c, 0xbe, 0x12, 0x23, 0x16, 0x3f,
//   0xf9, 0x5b, 0xca, 0xbe, 0xe5, 0xba, 0x10, 0xbe, 0xbc, 0xf6, 0x00, 0x3e,
//   0xa7, 0x6f, 0x0d, 0xbe, 0xae, 0xa7, 0x7e, 0x3f, 0xd4, 0x48, 0x0b, 0x3f,
//   0xa0, 0xe3, 0x8b, 0xbe, 0x3a, 0x0c, 0xf7, 0x3e, 0xf5, 0xe5, 0xf4, 0x3e,
//   0x3e, 0xc7, 0xa3, 0xbe, 0x6a, 0xbc, 0x6d, 0x3e, 0x5c, 0x83, 0x39, 0x3e,
//   0xf0, 0x5b, 0xb7, 0x3d, 0x48, 0x18, 0xca, 0xbd, 0x50, 0x2c, 0x31, 0xbe,
//   0xe8, 0x77, 0x7c, 0xbe, 0x44, 0x63, 0x94, 0xbe, 0xa2, 0xea, 0x0b, 0xbe,
//   0xa8, 0xc5, 0x85, 0x3e, 0x7c, 0x76, 0x0e, 0x3f, 0x4d, 0xce, 0xa0, 0xbe,
//   0x4e, 0xc9, 0xd7, 0xbe, 0xb8, 0x42, 0xe2, 0x3e, 0xc2, 0xe9, 0x87, 0xbe,
//   0xf9, 0x89, 0x0f, 0x3e, 0x38, 0x6f, 0xbd, 0xbe, 0xb5, 0xe8, 0x1d, 0x3f,
//   0x98, 0x34, 0x02, 0xbf, 0x0b, 0x03, 0x72, 0xbe, 0xaf, 0x79, 0x33, 0x3e,
//   0x58, 0x7e, 0x4c, 0x3e, 0x3c, 0x2a, 0x21, 0x3f, 0x89, 0xde, 0x3b, 0xbf,
//   0x88, 0x2d, 0x02, 0x3e, 0xac, 0xee, 0x44, 0x3e, 0xaa, 0x28, 0x11, 0xbf,
//   0x41, 0x96, 0x0f, 0xbf, 0xd4, 0x76, 0x59, 0x3f, 0xf7, 0xcd, 0x6e, 0xbf,
//   0x6b, 0x92, 0x0a, 0xbd, 0x64, 0x49, 0x95, 0xbe, 0xdc, 0xf6, 0xdf, 0xbe,
//   0x9f, 0x76, 0x3f, 0xbe, 0x23, 0xb1, 0xef, 0x3e, 0x94, 0x53, 0xc9, 0xbe,
//   0x18, 0x4e, 0x89, 0xbd, 0x02, 0x8d, 0xce, 0x3e, 0x83, 0xce, 0x75, 0x3f,
//   0xae, 0x25, 0x0e, 0x3e, 0xc3, 0xd1, 0xf4, 0x3d, 0x47, 0x2c, 0x6d, 0x3f,
//   0xa5, 0xb9, 0x7d, 0x3f, 0x96, 0x36, 0x09, 0xbe, 0x16, 0x8b, 0xb3, 0x3e,
//   0xcd, 0x74, 0x90, 0x3e, 0xc0, 0x4b, 0x3f, 0xbe, 0xeb, 0x6a, 0x14, 0xbe,
//   0x8d, 0xbb, 0x37, 0x3f, 0xe8, 0x4c, 0x3e, 0xbf, 0x2e, 0x43, 0x58, 0xbe,
//   0xcb, 0x24, 0x0a, 0x3f, 0x9b, 0xca, 0x23, 0xc0, 0xb2, 0xfe, 0xff, 0xff,
//   0x04, 0x00, 0x00, 0x00, 0x40, 0x01, 0x00, 0x00, 0x38, 0xfd, 0x1b, 0x3f,
//   0x23, 0x12, 0x04, 0x3f, 0xee, 0x35, 0xcf, 0xbe, 0xa8, 0xbc, 0xde, 0x3e,
//   0xcc, 0xce, 0x53, 0xbf, 0x15, 0x95, 0x80, 0x3f, 0x55, 0x82, 0x5e, 0x3e,
//   0x2c, 0xaa, 0x7d, 0x3f, 0x5a, 0x22, 0xdc, 0xbe, 0x43, 0xa2, 0x8c, 0x3d,
//   0x6c, 0xc5, 0x98, 0x3e, 0x08, 0xd4, 0x7a, 0xbe, 0xdf, 0xc5, 0x10, 0x3d,
//   0xe8, 0x3c, 0x18, 0x3e, 0xef, 0xd4, 0x15, 0xbf, 0x22, 0xc6, 0x29, 0xbe,
//   0x43, 0x08, 0x60, 0x3e, 0x62, 0x6f, 0xf4, 0xbd, 0xec, 0xed, 0xb6, 0xbe,
//   0x4c, 0x95, 0xe6, 0xbd, 0xd6, 0x91, 0xd6, 0x3d, 0x1c, 0xa1, 0x7f, 0xbe,
//   0x4c, 0x82, 0xcd, 0xbe, 0x90, 0x5f, 0xdc, 0x3e, 0x6a, 0x56, 0x87, 0x3e,
//   0xbf, 0x13, 0x6a, 0x3e, 0xfd, 0x1e, 0x3d, 0x3f, 0x60, 0x3a, 0x5f, 0x3e,
//   0xf3, 0x6b, 0x5d, 0xbf, 0x43, 0x52, 0x65, 0x3e, 0xbb, 0xc7, 0x70, 0x3e,
//   0x5e, 0x54, 0x46, 0x3f, 0x00, 0x03, 0x50, 0x3f, 0x37, 0xa0, 0x8a, 0x3e,
//   0x65, 0x51, 0xab, 0x3e, 0xb6, 0x3e, 0x18, 0xbe, 0xb2, 0x62, 0x15, 0x3e,
//   0x35, 0x6e, 0xed, 0x3b, 0x04, 0xe9, 0x0d, 0xbf, 0x80, 0x82, 0x56, 0xbe,
//   0xf5, 0xd6, 0x80, 0xbe, 0x57, 0x2b, 0xc1, 0xbe, 0xa7, 0x78, 0x43, 0x3e,
//   0xb4, 0xca, 0xe5, 0x3e, 0xf3, 0x19, 0xca, 0x3e, 0x0a, 0x4f, 0x5e, 0xbe,
//   0x5a, 0xac, 0x02, 0xbf, 0x5d, 0x3f, 0xfc, 0xbe, 0x55, 0xbe, 0xe4, 0x3e,
//   0xc5, 0x47, 0xd8, 0xbd, 0xbb, 0xd6, 0x9a, 0x3f, 0x01, 0x84, 0xa3, 0xbe,
//   0xf7, 0x8f, 0x30, 0xbe, 0xbb, 0x9b, 0xb0, 0xbe, 0xba, 0x0d, 0x8d, 0x3e,
//   0x32, 0x9b, 0xc0, 0x3e, 0x99, 0x42, 0x33, 0x3f, 0x92, 0x99, 0x02, 0x3f,
//   0x93, 0x7e, 0xa9, 0xbe, 0x98, 0x5a, 0xeb, 0xbe, 0xd2, 0x26, 0xcc, 0x3e,
//   0x0b, 0x5c, 0x53, 0xbf, 0x46, 0x86, 0x1e, 0x3f, 0x50, 0x60, 0x63, 0xbd,
//   0xc9, 0x29, 0x86, 0x3f, 0x7a, 0x47, 0x42, 0x3e, 0x0e, 0xe1, 0x0a, 0x3e,
//   0x1c, 0xd6, 0xe0, 0x3e, 0xb5, 0xfa, 0x5c, 0xbf, 0x94, 0xd7, 0xf8, 0x3f,
//   0xdd, 0x92, 0x93, 0xbd, 0x88, 0x75, 0xa4, 0x3e, 0x5e, 0xae, 0x81, 0x3f,
//   0xf8, 0x05, 0xed, 0x3e, 0xde, 0x74, 0x00, 0x3f, 0x0d, 0x09, 0x0f, 0xbf,
//   0x22, 0x4f, 0xc7, 0xba, 0xd3, 0x59, 0xfa, 0x3e, 0xf0, 0x22, 0x5f, 0xbf,
//   0x1b, 0x31, 0x1d, 0x3c, 0x00, 0x00, 0x06, 0x00, 0x08, 0x00, 0x04, 0x00,
//   0x06, 0x00, 0x00, 0x00, 0x04, 0x00, 0x00, 0x00, 0x78, 0x00, 0x00, 0x00,
//   0x09, 0x18, 0x5d, 0x3f, 0xc7, 0xdf, 0x20, 0x3e, 0x5e, 0x01, 0x74, 0x3d,
//   0x97, 0x69, 0x2e, 0xbe, 0x3b, 0x0e, 0x41, 0xbd, 0xd9, 0x7d, 0xef, 0x3e,
//   0x0b, 0x3c, 0x49, 0xbf, 0x4d, 0x7b, 0x5a, 0x3f, 0x8c, 0x6d, 0xb8, 0x3b,
//   0xfb, 0xb4, 0x50, 0xbf, 0x2d, 0xe9, 0xa1, 0xbf, 0x3e, 0x3a, 0x16, 0xbe,
//   0x5f, 0x6a, 0x31, 0xbf, 0x5c, 0x3e, 0x7d, 0xbe, 0xa0, 0x3f, 0x43, 0xbe,
//   0x1a, 0xe8, 0x0f, 0xbf, 0xbe, 0xb9, 0x14, 0x3f, 0x97, 0x7f, 0x40, 0x3f,
//   0xe6, 0xa7, 0x1d, 0xbf, 0xd8, 0xf9, 0xd9, 0xbe, 0xe1, 0x6e, 0xb1, 0xbe,
//   0x9a, 0x20, 0xb4, 0xbe, 0xc7, 0x66, 0xcf, 0x3e, 0xc8, 0x07, 0x75, 0x3f,
//   0xd1, 0xe3, 0x1d, 0xbf, 0x13, 0x22, 0x1b, 0x3f, 0xfb, 0x73, 0x20, 0x3f,
//   0x56, 0x2b, 0x30, 0xbf, 0xd5, 0xd2, 0x9a, 0x3d, 0x0b, 0x6c, 0x3b, 0xbf,
//   0x10, 0xf7, 0xff, 0xff, 0x14, 0xf7, 0xff, 0xff, 0x0f, 0x00, 0x00, 0x00,
//   0x4d, 0x4c, 0x49, 0x52, 0x20, 0x43, 0x6f, 0x6e, 0x76, 0x65, 0x72, 0x74,
//   0x65, 0x64, 0x2e, 0x00, 0x01, 0x00, 0x00, 0x00, 0x14, 0x00, 0x00, 0x00,
//   0x00, 0x00, 0x0e, 0x00, 0x18, 0x00, 0x14, 0x00, 0x10, 0x00, 0x0c, 0x00,
//   0x08, 0x00, 0x04, 0x00, 0x0e, 0x00, 0x00, 0x00, 0x14, 0x00, 0x00, 0x00,
//   0x1c, 0x00, 0x00, 0x00, 0x54, 0x01, 0x00, 0x00, 0x58, 0x01, 0x00, 0x00,
//   0x5c, 0x01, 0x00, 0x00, 0x04, 0x00, 0x00, 0x00, 0x6d, 0x61, 0x69, 0x6e,
//   0x00, 0x00, 0x00, 0x00, 0x05, 0x00, 0x00, 0x00, 0xf8, 0x00, 0x00, 0x00,
//   0xb0, 0x00, 0x00, 0x00, 0x78, 0x00, 0x00, 0x00, 0x34, 0x00, 0x00, 0x00,
//   0x10, 0x00, 0x00, 0x00, 0x00, 0x00, 0x0a, 0x00, 0x10, 0x00, 0x0c, 0x00,
//   0x08, 0x00, 0x04, 0x00, 0x0a, 0x00, 0x00, 0x00, 0x0c, 0x00, 0x00, 0x00,
//   0x10, 0x00, 0x00, 0x00, 0x01, 0x00, 0x00, 0x00, 0x01, 0x00, 0x00, 0x00,
//   0x0d, 0x00, 0x00, 0x00, 0x01, 0x00, 0x00, 0x00, 0x0c, 0x00, 0x00, 0x00,
//   0x56, 0xff, 0xff, 0xff, 0x1c, 0x00, 0x00, 0x00, 0x00, 0x00, 0x00, 0x08,
//   0x1c, 0x00, 0x00, 0x00, 0x20, 0x00, 0x00, 0x00, 0x00, 0x00, 0x0a, 0x00,
//   0x08, 0x00, 0x00, 0x00, 0x00, 0x00, 0x07, 0x00, 0x0a, 0x00, 0x00, 0x00,
//   0x00, 0x00, 0x00, 0x01, 0x01, 0x00, 0x00, 0x00, 0x0c, 0x00, 0x00, 0x00,
//   0x03, 0x00, 0x00, 0x00, 0x0b, 0x00, 0x00, 0x00, 0x01, 0x00, 0x00, 0x00,
//   0x07, 0x00, 0x00, 0x00, 0x96, 0xff, 0xff, 0xff, 0x10, 0x00, 0x00, 0x00,
//   0x00, 0x00, 0x00, 0x08, 0x10, 0x00, 0x00, 0x00, 0x14, 0x00, 0x00, 0x00,
//   0x86, 0xff, 0xff, 0xff, 0x00, 0x00, 0x01, 0x01, 0x01, 0x00, 0x00, 0x00,
//   0x0b, 0x00, 0x00, 0x00, 0x03, 0x00, 0x00, 0x00, 0x0a, 0x00, 0x00, 0x00,
//   0x02, 0x00, 0x00, 0x00, 0x06, 0x00, 0x00, 0x00, 0xca, 0xff, 0xff, 0xff,
//   0x10, 0x00, 0x00, 0x00, 0x00, 0x00, 0x00, 0x08, 0x10, 0x00, 0x00, 0x00,
//   0x14, 0x00, 0x00, 0x00, 0xba, 0xff, 0xff, 0xff, 0x00, 0x00, 0x01, 0x01,
//   0x01, 0x00, 0x00, 0x00, 0x0a, 0x00, 0x00, 0x00, 0x03, 0x00, 0x00, 0x00,
//   0x09, 0x00, 0x00, 0x00, 0x03, 0x00, 0x00, 0x00, 0x05, 0x00, 0x00, 0x00,
//   0x00, 0x00, 0x0e, 0x00, 0x16, 0x00, 0x00, 0x00, 0x10, 0x00, 0x0c, 0x00,
//   0x0b, 0x00, 0x04, 0x00, 0x0e, 0x00, 0x00, 0x00, 0x1c, 0x00, 0x00, 0x00,
//   0x00, 0x00, 0x00, 0x08, 0x1c, 0x00, 0x00, 0x00, 0x20, 0x00, 0x00, 0x00,
//   0x00, 0x00, 0x0a, 0x00, 0x08, 0x00, 0x07, 0x00, 0x00, 0x00, 0x06, 0x00,
//   0x0a, 0x00, 0x00, 0x00, 0x00, 0x00, 0x01, 0x01, 0x01, 0x00, 0x00, 0x00,
//   0x09, 0x00, 0x00, 0x00, 0x03, 0x00, 0x00, 0x00, 0x00, 0x00, 0x00, 0x00,
//   0x08, 0x00, 0x00, 0x00, 0x04, 0x00, 0x00, 0x00, 0x01, 0x00, 0x00, 0x00,
//   0x0d, 0x00, 0x00, 0x00, 0x01, 0x00, 0x00, 0x00, 0x00, 0x00, 0x00, 0x00,
//   0x0e, 0x00, 0x00, 0x00, 0x1c, 0x07, 0x00, 0x00, 0xc4, 0x06, 0x00, 0x00,
//   0x6c, 0x06, 0x00, 0x00, 0x2c, 0x06, 0x00, 0x00, 0xb8, 0x05, 0x00, 0x00,
//   0x44, 0x05, 0x00, 0x00, 0xd0, 0x04, 0x00, 0x00, 0x5c, 0x04, 0x00, 0x00,
//   0xf4, 0x03, 0x00, 0x00, 0x04, 0x03, 0x00, 0x00, 0x14, 0x02, 0x00, 0x00,
//   0x24, 0x01, 0x00, 0x00, 0x68, 0x00, 0x00, 0x00, 0x04, 0x00, 0x00, 0x00,
//   0x32, 0xf9, 0xff, 0xff, 0x00, 0x00, 0x00, 0x01, 0x14, 0x00, 0x00, 0x00,
//   0x20, 0x00, 0x00, 0x00, 0x20, 0x00, 0x00, 0x00, 0x0e, 0x00, 0x00, 0x00,
//   0x38, 0x00, 0x00, 0x00, 0x03, 0x00, 0x00, 0x00, 0xff, 0xff, 0xff, 0xff,
//   0x2c, 0x01, 0x00, 0x00, 0x03, 0x00, 0x00, 0x00, 0x1c, 0xf9, 0xff, 0xff,
//   0x1b, 0x00, 0x00, 0x00, 0x53, 0x74, 0x61, 0x74, 0x65, 0x66, 0x75, 0x6c,
//   0x50, 0x61, 0x72, 0x74, 0x69, 0x74, 0x69, 0x6f, 0x6e, 0x65, 0x64, 0x43,
//   0x61, 0x6c, 0x6c, 0x5f, 0x31, 0x3a, 0x30, 0x00, 0x03, 0x00, 0x00, 0x00,
//   0x01, 0x00, 0x00, 0x00, 0x2c, 0x01, 0x00, 0x00, 0x03, 0x00, 0x00, 0x00,
//   0x92, 0xf9, 0xff, 0xff, 0x00, 0x00, 0x00, 0x01, 0x14, 0x00, 0x00, 0x00,
//   0x20, 0x00, 0x00, 0x00, 0x20, 0x00, 0x00, 0x00, 0x0d, 0x00, 0x00, 0x00,
//   0x90, 0x00, 0x00, 0x00, 0x03, 0x00, 0x00, 0x00, 0xff, 0xff, 0xff, 0xff,
//   0x2c, 0x01, 0x00, 0x00, 0x03, 0x00, 0x00, 0x00, 0x7c, 0xf9, 0xff, 0xff,
//   0x70, 0x00, 0x00, 0x00, 0x61, 0x6e, 0x6f, 0x6d, 0x61, 0x6c, 0x79, 0x5f,
//   0x64, 0x65, 0x74, 0x65, 0x63, 0x74, 0x6f, 0x72, 0x5f, 0x31, 0x32, 0x5f,
//   0x31, 0x2f, 0x73, 0x65, 0x71, 0x75, 0x65, 0x6e, 0x74, 0x69, 0x61, 0x6c,
//   0x5f, 0x32, 0x35, 0x5f, 0x31, 0x2f, 0x64, 0x65, 0x6e, 0x73, 0x65, 0x5f,
//   0x35, 0x31, 0x5f, 0x31, 0x2f, 0x4d, 0x61, 0x74, 0x4d, 0x75, 0x6c, 0x3b,
//   0x61, 0x6e, 0x6f, 0x6d, 0x61, 0x6c, 0x79, 0x5f, 0x64, 0x65, 0x74, 0x65,
//   0x63, 0x74, 0x6f, 0x72, 0x5f, 0x31, 0x32, 0x5f, 0x31, 0x2f, 0x73, 0x65,
//   0x71, 0x75, 0x65, 0x6e, 0x74, 0x69, 0x61, 0x6c, 0x5f, 0x32, 0x35, 0x5f,
//   0x31, 0x2f, 0x64, 0x65, 0x6e, 0x73, 0x65, 0x5f, 0x35, 0x31, 0x5f, 0x31,
//   0x2f, 0x42, 0x69, 0x61, 0x73, 0x41, 0x64, 0x64, 0x00, 0x00, 0x00, 0x00,
//   0x03, 0x00, 0x00, 0x00, 0x01, 0x00, 0x00, 0x00, 0x2c, 0x01, 0x00, 0x00,
//   0x03, 0x00, 0x00, 0x00, 0x4a, 0xfa, 0xff, 0xff, 0x00, 0x00, 0x00, 0x01,
//   0x14, 0x00, 0x00, 0x00, 0x20, 0x00, 0x00, 0x00, 0x20, 0x00, 0x00, 0x00,
//   0x0c, 0x00, 0x00, 0x00, 0xc4, 0x00, 0x00, 0x00, 0x03, 0x00, 0x00, 0x00,
//   0xff, 0xff, 0xff, 0xff, 0x2c, 0x01, 0x00, 0x00, 0x0a, 0x00, 0x00, 0x00,
//   0x34, 0xfa, 0xff, 0xff, 0xa6, 0x00, 0x00, 0x00, 0x61, 0x6e, 0x6f, 0x6d,
//   0x61, 0x6c, 0x79, 0x5f, 0x64, 0x65, 0x74, 0x65, 0x63, 0x74, 0x6f, 0x72,
//   0x5f, 0x31, 0x32, 0x5f, 0x31, 0x2f, 0x73, 0x65, 0x71, 0x75, 0x65, 0x6e,
//   0x74, 0x69, 0x61, 0x6c, 0x5f, 0x32, 0x35, 0x5f, 0x31, 0x2f, 0x64, 0x65,
//   0x6e, 0x73, 0x65, 0x5f, 0x35, 0x30, 0x5f, 0x31, 0x2f, 0x4d, 0x61, 0x74,
//   0x4d, 0x75, 0x6c, 0x3b, 0x61, 0x6e, 0x6f, 0x6d, 0x61, 0x6c, 0x79, 0x5f,
//   0x64, 0x65, 0x74, 0x65, 0x63, 0x74, 0x6f, 0x72, 0x5f, 0x31, 0x32, 0x5f,
//   0x31, 0x2f, 0x73, 0x65, 0x71, 0x75, 0x65, 0x6e, 0x74, 0x69, 0x61, 0x6c,
//   0x5f, 0x32, 0x35, 0x5f, 0x31, 0x2f, 0x64, 0x65, 0x6e, 0x73, 0x65, 0x5f,
//   0x35, 0x30, 0x5f, 0x31, 0x2f, 0x52, 0x65, 0x6c, 0x75, 0x3b, 0x61, 0x6e,
//   0x6f, 0x6d, 0x61, 0x6c, 0x79, 0x5f, 0x64, 0x65, 0x74, 0x65, 0x63, 0x74,
//   0x6f, 0x72, 0x5f, 0x31, 0x32, 0x5f, 0x31, 0x2f, 0x73, 0x65, 0x71, 0x75,
//   0x65, 0x6e, 0x74, 0x69, 0x61, 0x6c, 0x5f, 0x32, 0x35, 0x5f, 0x31, 0x2f,
//   0x64, 0x65, 0x6e, 0x73, 0x65, 0x5f, 0x35, 0x30, 0x5f, 0x31, 0x2f, 0x42,
//   0x69, 0x61, 0x73, 0x41, 0x64, 0x64, 0x00, 0x00, 0x03, 0x00, 0x00, 0x00,
//   0x01, 0x00, 0x00, 0x00, 0x2c, 0x01, 0x00, 0x00, 0x0a, 0x00, 0x00, 0x00,
//   0x36, 0xfb, 0xff, 0xff, 0x00, 0x00, 0x00, 0x01, 0x14, 0x00, 0x00, 0x00,
//   0x20, 0x00, 0x00, 0x00, 0x20, 0x00, 0x00, 0x00, 0x0b, 0x00, 0x00, 0x00,
//   0xc4, 0x00, 0x00, 0x00, 0x03, 0x00, 0x00, 0x00, 0xff, 0xff, 0xff, 0xff,
//   0x2c, 0x01, 0x00, 0x00, 0x08, 0x00, 0x00, 0x00, 0x20, 0xfb, 0xff, 0xff,
//   0xa6, 0x00, 0x00, 0x00, 0x61, 0x6e, 0x6f, 0x6d, 0x61, 0x6c, 0x79, 0x5f,
//   0x64, 0x65, 0x74, 0x65, 0x63, 0x74, 0x6f, 0x72, 0x5f, 0x31, 0x32, 0x5f,
//   0x31, 0x2f, 0x73, 0x65, 0x71, 0x75, 0x65, 0x6e, 0x74, 0x69, 0x61, 0x6c,
//   0x5f, 0x32, 0x34, 0x5f, 0x31, 0x2f, 0x64, 0x65, 0x6e, 0x73, 0x65, 0x5f,
//   0x34, 0x39, 0x5f, 0x31, 0x2f, 0x4d, 0x61, 0x74, 0x4d, 0x75, 0x6c, 0x3b,
//   0x61, 0x6e, 0x6f, 0x6d, 0x61, 0x6c, 0x79, 0x5f, 0x64, 0x65, 0x74, 0x65,
//   0x63, 0x74, 0x6f, 0x72, 0x5f, 0x31, 0x32, 0x5f, 0x31, 0x2f, 0x73, 0x65,
//   0x71, 0x75, 0x65, 0x6e, 0x74, 0x69, 0x61, 0x6c, 0x5f, 0x32, 0x34, 0x5f,
//   0x31, 0x2f, 0x64, 0x65, 0x6e, 0x73, 0x65, 0x5f, 0x34, 0x39, 0x5f, 0x31,
//   0x2f, 0x52, 0x65, 0x6c, 0x75, 0x3b, 0x61, 0x6e, 0x6f, 0x6d, 0x61, 0x6c,
//   0x79, 0x5f, 0x64, 0x65, 0x74, 0x65, 0x63, 0x74, 0x6f, 0x72, 0x5f, 0x31,
//   0x32, 0x5f, 0x31, 0x2f, 0x73, 0x65, 0x71, 0x75, 0x65, 0x6e, 0x74, 0x69,
//   0x61, 0x6c, 0x5f, 0x32, 0x34, 0x5f, 0x31, 0x2f, 0x64, 0x65, 0x6e, 0x73,
//   0x65, 0x5f, 0x34, 0x39, 0x5f, 0x31, 0x2f, 0x42, 0x69, 0x61, 0x73, 0x41,
//   0x64, 0x64, 0x00, 0x00, 0x03, 0x00, 0x00, 0x00, 0x01, 0x00, 0x00, 0x00,
//   0x2c, 0x01, 0x00, 0x00, 0x08, 0x00, 0x00, 0x00, 0x22, 0xfc, 0xff, 0xff,
//   0x00, 0x00, 0x00, 0x01, 0x14, 0x00, 0x00, 0x00, 0x20, 0x00, 0x00, 0x00,
//   0x20, 0x00, 0x00, 0x00, 0x0a, 0x00, 0x00, 0x00, 0xc4, 0x00, 0x00, 0x00,
//   0x03, 0x00, 0x00, 0x00, 0xff, 0xff, 0xff, 0xff, 0x2c, 0x01, 0x00, 0x00,
//   0x0a, 0x00, 0x00, 0x00, 0x0c, 0xfc, 0xff, 0xff, 0xa6, 0x00, 0x00, 0x00,
//   0x61, 0x6e, 0x6f, 0x6d, 0x61, 0x6c, 0x79, 0x5f, 0x64, 0x65, 0x74, 0x65,
//   0x63, 0x74, 0x6f, 0x72, 0x5f, 0x31, 0x32, 0x5f, 0x31, 0x2f, 0x73, 0x65,
//   0x71, 0x75, 0x65, 0x6e, 0x74, 0x69, 0x61, 0x6c, 0x5f, 0x32, 0x34, 0x5f,
//   0x31, 0x2f, 0x64, 0x65, 0x6e, 0x73, 0x65, 0x5f, 0x34, 0x38, 0x5f, 0x31,
//   0x2f, 0x4d, 0x61, 0x74, 0x4d, 0x75, 0x6c, 0x3b, 0x61, 0x6e, 0x6f, 0x6d,
//   0x61, 0x6c, 0x79, 0x5f, 0x64, 0x65, 0x74, 0x65, 0x63, 0x74, 0x6f, 0x72,
//   0x5f, 0x31, 0x32, 0x5f, 0x31, 0x2f, 0x73, 0x65, 0x71, 0x75, 0x65, 0x6e,
//   0x74, 0x69, 0x61, 0x6c, 0x5f, 0x32, 0x34, 0x5f, 0x31, 0x2f, 0x64, 0x65,
//   0x6e, 0x73, 0x65, 0x5f, 0x34, 0x38, 0x5f, 0x31, 0x2f, 0x52, 0x65, 0x6c,
//   0x75, 0x3b, 0x61, 0x6e, 0x6f, 0x6d, 0x61, 0x6c, 0x79, 0x5f, 0x64, 0x65,
//   0x74, 0x65, 0x63, 0x74, 0x6f, 0x72, 0x5f, 0x31, 0x32, 0x5f, 0x31, 0x2f,
//   0x73, 0x65, 0x71, 0x75, 0x65, 0x6e, 0x74, 0x69, 0x61, 0x6c, 0x5f, 0x32,
//   0x34, 0x5f, 0x31, 0x2f, 0x64, 0x65, 0x6e, 0x73, 0x65, 0x5f, 0x34, 0x38,
//   0x5f, 0x31, 0x2f, 0x42, 0x69, 0x61, 0x73, 0x41, 0x64, 0x64, 0x00, 0x00,
//   0x03, 0x00, 0x00, 0x00, 0x01, 0x00, 0x00, 0x00, 0x2c, 0x01, 0x00, 0x00,
//   0x0a, 0x00, 0x00, 0x00, 0x62, 0xfd, 0xff, 0xff, 0x00, 0x00, 0x00, 0x01,
//   0x10, 0x00, 0x00, 0x00, 0x10, 0x00, 0x00, 0x00, 0x09, 0x00, 0x00, 0x00,
//   0x44, 0x00, 0x00, 0x00, 0xe4, 0xfc, 0xff, 0xff, 0x37, 0x00, 0x00, 0x00,
//   0x61, 0x6e, 0x6f, 0x6d, 0x61, 0x6c, 0x79, 0x5f, 0x64, 0x65, 0x74, 0x65,
//   0x63, 0x74, 0x6f, 0x72, 0x5f, 0x31, 0x32, 0x5f, 0x31, 0x2f, 0x73, 0x65,
//   0x71, 0x75, 0x65, 0x6e, 0x74, 0x69, 0x61, 0x6c, 0x5f, 0x32, 0x34, 0x5f,
//   0x31, 0x2f, 0x64, 0x65, 0x6e, 0x73, 0x65, 0x5f, 0x34, 0x38, 0x5f, 0x31,
//   0x2f, 0x4d, 0x61, 0x74, 0x4d, 0x75, 0x6c, 0x00, 0x02, 0x00, 0x00, 0x00,
//   0x0a, 0x00, 0x00, 0x00, 0x03, 0x00, 0x00, 0x00, 0xc6, 0xfd, 0xff, 0xff,
//   0x00, 0x00, 0x00, 0x01, 0x10, 0x00, 0x00, 0x00, 0x10, 0x00, 0x00, 0x00,
//   0x08, 0x00, 0x00, 0x00, 0x54, 0x00, 0x00, 0x00, 0x48, 0xfd, 0xff, 0xff,
//   0x47, 0x00, 0x00, 0x00, 0x61, 0x6e, 0x6f, 0x6d, 0x61, 0x6c, 0x79, 0x5f,
//   0x64, 0x65, 0x74, 0x65, 0x63, 0x74, 0x6f, 0x72, 0x5f, 0x31, 0x32, 0x5f,
//   0x31, 0x2f, 0x73, 0x65, 0x71, 0x75, 0x65, 0x6e, 0x74, 0x69, 0x61, 0x6c,
//   0x5f, 0x32, 0x35, 0x5f, 0x31, 0x2f, 0x64, 0x65, 0x6e, 0x73, 0x65, 0x5f,
//   0x35, 0x31, 0x5f, 0x31, 0x2f, 0x42, 0x69, 0x61, 0x73, 0x41, 0x64, 0x64,
//   0x2f, 0x52, 0x65, 0x61, 0x64, 0x56, 0x61, 0x72, 0x69, 0x61, 0x62, 0x6c,
//   0x65, 0x4f, 0x70, 0x00, 0x01, 0x00, 0x00, 0x00, 0x03, 0x00, 0x00, 0x00,
//   0x36, 0xfe, 0xff, 0xff, 0x00, 0x00, 0x00, 0x01, 0x10, 0x00, 0x00, 0x00,
//   0x10, 0x00, 0x00, 0x00, 0x07, 0x00, 0x00, 0x00, 0x54, 0x00, 0x00, 0x00,
//   0xb8, 0xfd, 0xff, 0xff, 0x47, 0x00, 0x00, 0x00, 0x61, 0x6e, 0x6f, 0x6d,
//   0x61, 0x6c, 0x79, 0x5f, 0x64, 0x65, 0x74, 0x65, 0x63, 0x74, 0x6f, 0x72,
//   0x5f, 0x31, 0x32, 0x5f, 0x31, 0x2f, 0x73, 0x65, 0x71, 0x75, 0x65, 0x6e,
//   0x74, 0x69, 0x61, 0x6c, 0x5f, 0x32, 0x35, 0x5f, 0x31, 0x2f, 0x64, 0x65,
//   0x6e, 0x73, 0x65, 0x5f, 0x35, 0x30, 0x5f, 0x31, 0x2f, 0x42, 0x69, 0x61,
//   0x73, 0x41, 0x64, 0x64, 0x2f, 0x52, 0x65, 0x61, 0x64, 0x56, 0x61, 0x72,
//   0x69, 0x61, 0x62, 0x6c, 0x65, 0x4f, 0x70, 0x00, 0x01, 0x00, 0x00, 0x00,
//   0x0a, 0x00, 0x00, 0x00, 0xa6, 0xfe, 0xff, 0xff, 0x00, 0x00, 0x00, 0x01,
//   0x10, 0x00, 0x00, 0x00, 0x10, 0x00, 0x00, 0x00, 0x06, 0x00, 0x00, 0x00,
//   0x54, 0x00, 0x00, 0x00, 0x28, 0xfe, 0xff, 0xff, 0x47, 0x00, 0x00, 0x00,
//   0x61, 0x6e, 0x6f, 0x6d, 0x61, 0x6c, 0x79, 0x5f, 0x64, 0x65, 0x74, 0x65,
//   0x63, 0x74, 0x6f, 0x72, 0x5f, 0x31, 0x32, 0x5f, 0x31, 0x2f, 0x73, 0x65,
//   0x71, 0x75, 0x65, 0x6e, 0x74, 0x69, 0x61, 0x6c, 0x5f, 0x32, 0x34, 0x5f,
//   0x31, 0x2f, 0x64, 0x65, 0x6e, 0x73, 0x65, 0x5f, 0x34, 0x39, 0x5f, 0x31,
//   0x2f, 0x42, 0x69, 0x61, 0x73, 0x41, 0x64, 0x64, 0x2f, 0x52, 0x65, 0x61,
//   0x64, 0x56, 0x61, 0x72, 0x69, 0x61, 0x62, 0x6c, 0x65, 0x4f, 0x70, 0x00,
//   0x01, 0x00, 0x00, 0x00, 0x08, 0x00, 0x00, 0x00, 0x16, 0xff, 0xff, 0xff,
//   0x00, 0x00, 0x00, 0x01, 0x10, 0x00, 0x00, 0x00, 0x10, 0x00, 0x00, 0x00,
//   0x05, 0x00, 0x00, 0x00, 0x54, 0x00, 0x00, 0x00, 0x98, 0xfe, 0xff, 0xff,
//   0x47, 0x00, 0x00, 0x00, 0x61, 0x6e, 0x6f, 0x6d, 0x61, 0x6c, 0x79, 0x5f,
//   0x64, 0x65, 0x74, 0x65, 0x63, 0x74, 0x6f, 0x72, 0x5f, 0x31, 0x32, 0x5f,
//   0x31, 0x2f, 0x73, 0x65, 0x71, 0x75, 0x65, 0x6e, 0x74, 0x69, 0x61, 0x6c,
//   0x5f, 0x32, 0x34, 0x5f, 0x31, 0x2f, 0x64, 0x65, 0x6e, 0x73, 0x65, 0x5f,
//   0x34, 0x38, 0x5f, 0x31, 0x2f, 0x42, 0x69, 0x61, 0x73, 0x41, 0x64, 0x64,
//   0x2f, 0x52, 0x65, 0x61, 0x64, 0x56, 0x61, 0x72, 0x69, 0x61, 0x62, 0x6c,
//   0x65, 0x4f, 0x70, 0x00, 0x01, 0x00, 0x00, 0x00, 0x0a, 0x00, 0x00, 0x00,
//   0x86, 0xff, 0xff, 0xff, 0x00, 0x00, 0x00, 0x01, 0x10, 0x00, 0x00, 0x00,
//   0x10, 0x00, 0x00, 0x00, 0x04, 0x00, 0x00, 0x00, 0x1c, 0x00, 0x00, 0x00,
//   0x08, 0xff, 0xff, 0xff, 0x0f, 0x00, 0x00, 0x00, 0x61, 0x72, 0x69, 0x74,
//   0x68, 0x2e, 0x63, 0x6f, 0x6e, 0x73, 0x74, 0x61, 0x6e, 0x74, 0x32, 0x00,
//   0x02, 0x00, 0x00, 0x00, 0x08, 0x00, 0x00, 0x00, 0x0a, 0x00, 0x00, 0x00,
//   0xc2, 0xff, 0xff, 0xff, 0x00, 0x00, 0x00, 0x01, 0x10, 0x00, 0x00, 0x00,
//   0x10, 0x00, 0x00, 0x00, 0x03, 0x00, 0x00, 0x00, 0x1c, 0x00, 0x00, 0x00,
//   0x44, 0xff, 0xff, 0xff, 0x0f, 0x00, 0x00, 0x00, 0x61, 0x72, 0x69, 0x74,
//   0x68, 0x2e, 0x63, 0x6f, 0x6e, 0x73, 0x74, 0x61, 0x6e, 0x74, 0x31, 0x00,
//   0x02, 0x00, 0x00, 0x00, 0x0a, 0x00, 0x00, 0x00, 0x08, 0x00, 0x00, 0x00,
//   0x00, 0x00, 0x16, 0x00, 0x18, 0x00, 0x14, 0x00, 0x00, 0x00, 0x10, 0x00,
//   0x0c, 0x00, 0x08, 0x00, 0x00, 0x00, 0x00, 0x00, 0x00, 0x00, 0x07, 0x00,
//   0x16, 0x00, 0x00, 0x00, 0x00, 0x00, 0x00, 0x01, 0x10, 0x00, 0x00, 0x00,
//   0x10, 0x00, 0x00, 0x00, 0x02, 0x00, 0x00, 0x00, 0x1c, 0x00, 0x00, 0x00,
//   0x98, 0xff, 0xff, 0xff, 0x0e, 0x00, 0x00, 0x00, 0x61, 0x72, 0x69, 0x74,
//   0x68, 0x2e, 0x63, 0x6f, 0x6e, 0x73, 0x74, 0x61, 0x6e, 0x74, 0x00, 0x00,
//   0x02, 0x00, 0x00, 0x00, 0x03, 0x00, 0x00, 0x00, 0x0a, 0x00, 0x00, 0x00,
//   0x00, 0x00, 0x16, 0x00, 0x1c, 0x00, 0x18, 0x00, 0x00, 0x00, 0x14, 0x00,
//   0x10, 0x00, 0x0c, 0x00, 0x00, 0x00, 0x00, 0x00, 0x08, 0x00, 0x07, 0x00,
//   0x16, 0x00, 0x00, 0x00, 0x00, 0x00, 0x00, 0x01, 0x14, 0x00, 0x00, 0x00,
//   0x24, 0x00, 0x00, 0x00, 0x24, 0x00, 0x00, 0x00, 0x01, 0x00, 0x00, 0x00,
//   0x3c, 0x00, 0x00, 0x00, 0x03, 0x00, 0x00, 0x00, 0xff, 0xff, 0xff, 0xff,
//   0x2c, 0x01, 0x00, 0x00, 0x03, 0x00, 0x00, 0x00, 0x04, 0x00, 0x04, 0x00,
//   0x04, 0x00, 0x00, 0x00, 0x18, 0x00, 0x00, 0x00, 0x73, 0x65, 0x72, 0x76,
//   0x69, 0x6e, 0x67, 0x5f, 0x64, 0x65, 0x66, 0x61, 0x75, 0x6c, 0x74, 0x5f,
//   0x61, 0x72, 0x67, 0x73, 0x5f, 0x30, 0x3a, 0x30, 0x00, 0x00, 0x00, 0x00,
//   0x03, 0x00, 0x00, 0x00, 0x01, 0x00, 0x00, 0x00, 0x2c, 0x01, 0x00, 0x00,
//   0x03, 0x00, 0x00, 0x00, 0x02, 0x00, 0x00, 0x00, 0x2c, 0x00, 0x00, 0x00,
//   0x10, 0x00, 0x00, 0x00, 0x0c, 0x00, 0x0c, 0x00, 0x0b, 0x00, 0x00, 0x00,
//   0x00, 0x00, 0x04, 0x00, 0x0c, 0x00, 0x00, 0x00, 0x0e, 0x00, 0x00, 0x00,
//   0x00, 0x00, 0x00, 0x0e, 0x0c, 0x00, 0x10, 0x00, 0x0f, 0x00, 0x00, 0x00,
//   0x08, 0x00, 0x04, 0x00, 0x0c, 0x00, 0x00, 0x00, 0x09, 0x00, 0x00, 0x00,
//   0x05, 0x00, 0x00, 0x00, 0x00, 0x00, 0x00, 0x09
// };
// unsigned int cpr_training_model_len = 4004;








unsigned char cpr_training_model[] = {
  0x1c, 0x00, 0x00, 0x00, 0x54, 0x46, 0x4c, 0x33, 0x14, 0x00, 0x20, 0x00,
  0x1c, 0x00, 0x18, 0x00, 0x14, 0x00, 0x10, 0x00, 0x0c, 0x00, 0x00, 0x00,
  0x08, 0x00, 0x04, 0x00, 0x14, 0x00, 0x00, 0x00, 0x1c, 0x00, 0x00, 0x00,
  0x84, 0x00, 0x00, 0x00, 0xdc, 0x00, 0x00, 0x00, 0x14, 0x07, 0x00, 0x00,
  0x24, 0x07, 0x00, 0x00, 0x1c, 0x10, 0x00, 0x00, 0x03, 0x00, 0x00, 0x00,
  0x01, 0x00, 0x00, 0x00, 0x04, 0x00, 0x00, 0x00, 0x9a, 0xf8, 0xff, 0xff,
  0x0c, 0x00, 0x00, 0x00, 0x1c, 0x00, 0x00, 0x00, 0x3c, 0x00, 0x00, 0x00,
  0x0f, 0x00, 0x00, 0x00, 0x73, 0x65, 0x72, 0x76, 0x69, 0x6e, 0x67, 0x5f,
  0x64, 0x65, 0x66, 0x61, 0x75, 0x6c, 0x74, 0x00, 0x01, 0x00, 0x00, 0x00,
  0x04, 0x00, 0x00, 0x00, 0x98, 0xff, 0xff, 0xff, 0x0d, 0x00, 0x00, 0x00,
  0x04, 0x00, 0x00, 0x00, 0x08, 0x00, 0x00, 0x00, 0x6f, 0x75, 0x74, 0x70,
  0x75, 0x74, 0x5f, 0x30, 0x00, 0x00, 0x00, 0x00, 0x01, 0x00, 0x00, 0x00,
  0x04, 0x00, 0x00, 0x00, 0x5e, 0xfa, 0xff, 0xff, 0x04, 0x00, 0x00, 0x00,
  0x06, 0x00, 0x00, 0x00, 0x61, 0x72, 0x67, 0x73, 0x5f, 0x30, 0x00, 0x00,
  0x02, 0x00, 0x00, 0x00, 0x34, 0x00, 0x00, 0x00, 0x04, 0x00, 0x00, 0x00,
  0xdc, 0xff, 0xff, 0xff, 0x10, 0x00, 0x00, 0x00, 0x04, 0x00, 0x00, 0x00,
  0x13, 0x00, 0x00, 0x00, 0x43, 0x4f, 0x4e, 0x56, 0x45, 0x52, 0x53, 0x49,
  0x4f, 0x4e, 0x5f, 0x4d, 0x45, 0x54, 0x41, 0x44, 0x41, 0x54, 0x41, 0x00,
  0x08, 0x00, 0x0c, 0x00, 0x08, 0x00, 0x04, 0x00, 0x08, 0x00, 0x00, 0x00,
  0x0f, 0x00, 0x00, 0x00, 0x04, 0x00, 0x00, 0x00, 0x13, 0x00, 0x00, 0x00,
  0x6d, 0x69, 0x6e, 0x5f, 0x72, 0x75, 0x6e, 0x74, 0x69, 0x6d, 0x65, 0x5f,
  0x76, 0x65, 0x72, 0x73, 0x69, 0x6f, 0x6e, 0x00, 0x11, 0x00, 0x00, 0x00,
  0x34, 0x06, 0x00, 0x00, 0x2c, 0x06, 0x00, 0x00, 0x2c, 0x05, 0x00, 0x00,
  0xd4, 0x03, 0x00, 0x00, 0x84, 0x02, 0x00, 0x00, 0x4c, 0x02, 0x00, 0x00,
  0x1c, 0x02, 0x00, 0x00, 0xe4, 0x01, 0x00, 0x00, 0xbc, 0x01, 0x00, 0x00,
  0xbc, 0x00, 0x00, 0x00, 0xb4, 0x00, 0x00, 0x00, 0xac, 0x00, 0x00, 0x00,
  0xa4, 0x00, 0x00, 0x00, 0x9c, 0x00, 0x00, 0x00, 0x94, 0x00, 0x00, 0x00,
  0x74, 0x00, 0x00, 0x00, 0x04, 0x00, 0x00, 0x00, 0x16, 0xfb, 0xff, 0xff,
  0x04, 0x00, 0x00, 0x00, 0x60, 0x00, 0x00, 0x00, 0x10, 0x00, 0x00, 0x00,
  0x00, 0x00, 0x00, 0x00, 0x08, 0x00, 0x0e, 0x00, 0x08, 0x00, 0x04, 0x00,
  0x08, 0x00, 0x00, 0x00, 0x10, 0x00, 0x00, 0x00, 0x24, 0x00, 0x00, 0x00,
  0x00, 0x00, 0x06, 0x00, 0x08, 0x00, 0x04, 0x00, 0x06, 0x00, 0x00, 0x00,
  0x04, 0x00, 0x00, 0x00, 0x00, 0x00, 0x00, 0x00, 0x0c, 0x00, 0x18, 0x00,
  0x14, 0x00, 0x10, 0x00, 0x0c, 0x00, 0x04, 0x00, 0x0c, 0x00, 0x00, 0x00,
  0xda, 0xa3, 0xe0, 0x1b, 0x7b, 0x81, 0x8e, 0xa2, 0x01, 0x00, 0x00, 0x00,
  0x02, 0x00, 0x00, 0x00, 0x04, 0x00, 0x00, 0x00, 0x06, 0x00, 0x00, 0x00,
  0x32, 0x2e, 0x31, 0x39, 0x2e, 0x30, 0x00, 0x00, 0x82, 0xfb, 0xff, 0xff,
  0x04, 0x00, 0x00, 0x00, 0x10, 0x00, 0x00, 0x00, 0x32, 0x2e, 0x30, 0x2e,
  0x30, 0x00, 0x00, 0x00, 0x00, 0x00, 0x00, 0x00, 0x00, 0x00, 0x00, 0x00,
  0xbc, 0xf1, 0xff, 0xff, 0xc0, 0xf1, 0xff, 0xff, 0xc4, 0xf1, 0xff, 0xff,
  0xc8, 0xf1, 0xff, 0xff, 0xcc, 0xf1, 0xff, 0xff, 0xb2, 0xfb, 0xff, 0xff,
  0x04, 0x00, 0x00, 0x00, 0xf0, 0x00, 0x00, 0x00, 0xcb, 0xb3, 0x0f, 0x3e,
  0xcc, 0x3a, 0xb4, 0xbe, 0x1b, 0xc9, 0xb1, 0xbe, 0x6a, 0xc4, 0x0e, 0xbf,
  0xdb, 0x5c, 0xdc, 0x3e, 0x04, 0x28, 0x48, 0xbe, 0xc9, 0xd3, 0x1c, 0xbf,
  0x74, 0xf8, 0x82, 0x3e, 0x44, 0x7a, 0x26, 0x3d, 0x02, 0x6f, 0x76, 0x3f,
  0x6e, 0x71, 0x50, 0x3f, 0x2f, 0xff, 0x8e, 0x3e, 0x60, 0x2a, 0x03, 0x3d,
  0x38, 0xda, 0x18, 0xbf, 0xa0, 0xbd, 0x0a, 0xbd, 0x04, 0xb9, 0xb5, 0xbe,
  0x5b, 0x08, 0x9d, 0xbe, 0xa8, 0x14, 0x69, 0xbe, 0xd2, 0xb7, 0x22, 0x3e,
  0x7f, 0xaa, 0x08, 0x3f, 0x24, 0x46, 0x50, 0xbe, 0xb0, 0xfc, 0x20, 0xbe,
  0x59, 0x9e, 0x71, 0x3f, 0xde, 0xde, 0xbc, 0xbe, 0x29, 0xd3, 0x7c, 0x3c,
  0x78, 0x1a, 0xba, 0xbe, 0xc2, 0x18, 0x0d, 0xbe, 0xda, 0x16, 0x5c, 0x3e,
  0x14, 0x80, 0xd6, 0xbe, 0x44, 0x0f, 0xa3, 0x3d, 0x45, 0x5d, 0x1e, 0xbd,
  0xf1, 0x92, 0xbc, 0x3d, 0x42, 0xb7, 0x22, 0x3e, 0xdd, 0x6d, 0xd0, 0xbe,
  0x47, 0xdc, 0x6e, 0x3f, 0x24, 0x2d, 0x6e, 0x3f, 0x73, 0x2d, 0x74, 0xbe,
  0xc6, 0xf4, 0x77, 0xbe, 0xd8, 0x53, 0xd3, 0xbe, 0x51, 0x37, 0x7e, 0xbe,
  0x9d, 0xa8, 0xcb, 0x3d, 0x38, 0x00, 0x60, 0x3e, 0xdc, 0x54, 0x12, 0x3f,
  0xe3, 0x02, 0x26, 0x3f, 0xc2, 0x33, 0xd7, 0x3e, 0x21, 0x86, 0x8e, 0x3d,
  0x11, 0xc2, 0x05, 0x3f, 0x23, 0x35, 0xbe, 0xbd, 0xa8, 0x2a, 0x6d, 0x3e,
  0x60, 0x0d, 0x7c, 0xbd, 0x80, 0x4b, 0x07, 0x3d, 0xd0, 0x36, 0x03, 0xbf,
  0xde, 0x9f, 0xf8, 0xbe, 0x0c, 0xc8, 0xe4, 0xbe, 0x80, 0x2c, 0xbe, 0xbe,
  0x66, 0xef, 0xd9, 0xbe, 0x13, 0x27, 0xa8, 0xbe, 0x2d, 0x75, 0xdb, 0x3e,
  0x65, 0x21, 0x3a, 0x3d, 0x70, 0xe6, 0x90, 0x3d, 0xae, 0xfc, 0xff, 0xff,
  0x04, 0x00, 0x00, 0x00, 0x18, 0x00, 0x00, 0x00, 0x43, 0x52, 0x1a, 0xbe,
  0x2b, 0x6d, 0x62, 0xbe, 0x3a, 0x39, 0x03, 0xbe, 0xf4, 0x9b, 0x20, 0xbe,
  0x5d, 0x67, 0x32, 0xbf, 0xf1, 0x79, 0xc8, 0xbe, 0xd2, 0xfc, 0xff, 0xff,
  0x04, 0x00, 0x00, 0x00, 0x28, 0x00, 0x00, 0x00, 0x2d, 0x3e, 0xb2, 0x3e,
  0x73, 0xa2, 0x94, 0x3e, 0x10, 0x2d, 0x9d, 0xbe, 0xef, 0x74, 0xc3, 0xbd,
  0x25, 0x24, 0x81, 0x3e, 0xd3, 0x17, 0xd6, 0xbd, 0x00, 0x00, 0x00, 0x00,
  0xe6, 0x55, 0x70, 0xbd, 0x73, 0xb2, 0x53, 0xbe, 0xc0, 0x93, 0x28, 0x3e,
  0x06, 0xfd, 0xff, 0xff, 0x04, 0x00, 0x00, 0x00, 0x20, 0x00, 0x00, 0x00,
  0xf4, 0x3e, 0x30, 0x3e, 0xba, 0xcf, 0x66, 0x3e, 0x27, 0xfc, 0x45, 0xbd,
  0x08, 0xc7, 0x87, 0xbd, 0x2a, 0xa1, 0x9e, 0xbd, 0x6a, 0xea, 0x18, 0x3e,
  0x33, 0x08, 0x94, 0x3e, 0x2f, 0xcc, 0x8b, 0xbe, 0x32, 0xfd, 0xff, 0xff,
  0x04, 0x00, 0x00, 0x00, 0x28, 0x00, 0x00, 0x00, 0x90, 0x36, 0x1d, 0xbe,
  0x48, 0x56, 0xc8, 0xbd, 0x00, 0x00, 0x00, 0x00, 0x4b, 0x57, 0x68, 0x3e,
  0x78, 0x58, 0x3e, 0xbe, 0x1c, 0xb7, 0x5c, 0x3e, 0xa1, 0x87, 0x76, 0xbd,
  0x82, 0x14, 0x87, 0x3e, 0x00, 0x00, 0x00, 0x00, 0x56, 0xf1, 0x00, 0xbc,
  0x66, 0xfd, 0xff, 0xff, 0x04, 0x00, 0x00, 0x00, 0x40, 0x01, 0x00, 0x00,
  0xab, 0x78, 0x62, 0x3e, 0x24, 0x46, 0x23, 0xbf, 0x00, 0xa6, 0xf7, 0x3a,
  0x9b, 0xdb, 0x04, 0x3f, 0x05, 0xa8, 0x23, 0x3e, 0xd9, 0x25, 0x03, 0x3d,
  0x84, 0x13, 0xbd, 0xbc, 0x80, 0x72, 0x84, 0x3e, 0x75, 0xad, 0x08, 0xbf,
  0x74, 0x21, 0x81, 0xbe, 0xb6, 0xb4, 0xbd, 0xbe, 0x2b, 0x55, 0xd1, 0xbe,
  0xd0, 0x70, 0x6e, 0xbd, 0x3a, 0xea, 0x6e, 0x3e, 0x7b, 0xd5, 0x9f, 0x3d,
  0x6b, 0xf6, 0x97, 0xbe, 0x5c, 0xb1, 0x97, 0x3b, 0xc6, 0x3c, 0x33, 0x3f,
  0x40, 0xed, 0x20, 0x3d, 0x0e, 0xa3, 0x4d, 0xbe, 0x30, 0x81, 0xd4, 0x3e,
  0x86, 0x0b, 0x06, 0xbd, 0x70, 0x89, 0x2c, 0x3d, 0x8e, 0xea, 0x9f, 0xbe,
  0x74, 0x44, 0x7d, 0x3e, 0x4e, 0x8e, 0xb7, 0x3d, 0x6a, 0x98, 0x78, 0xbe,
  0xe6, 0xd0, 0xd6, 0xbe, 0x82, 0xb5, 0xb2, 0x3e, 0xbc, 0x5b, 0x73, 0xbe,
  0x47, 0x14, 0x1c, 0x3d, 0xb8, 0x5d, 0xe0, 0x3d, 0xa8, 0x96, 0x0e, 0xbf,
  0xb6, 0x12, 0xb0, 0x3e, 0x70, 0xf2, 0x18, 0xbf, 0xe1, 0xd4, 0xc6, 0xbe,
  0x88, 0x4a, 0xe2, 0x3d, 0x1d, 0xfc, 0x80, 0xbe, 0xa4, 0xdf, 0xfd, 0x3e,
  0xf1, 0xcb, 0x00, 0xbf, 0x06, 0xaf, 0xa2, 0x3c, 0x75, 0x0f, 0x91, 0x3f,
  0x93, 0x75, 0x0e, 0xbf, 0xd8, 0x54, 0x85, 0x3d, 0xef, 0xcb, 0x50, 0xbd,
  0x3d, 0xf5, 0x47, 0x3f, 0xab, 0x6c, 0x43, 0x3d, 0x9b, 0x4a, 0x1b, 0x3f,
  0x5c, 0x48, 0xc1, 0xbd, 0x56, 0x3d, 0xaa, 0xbe, 0x4a, 0xcd, 0xd1, 0x3e,
  0x3c, 0x3b, 0x49, 0x3f, 0x44, 0x38, 0x0a, 0x3f, 0xf6, 0xe8, 0x9e, 0x3e,
  0x10, 0xcd, 0x81, 0xbe, 0x4c, 0xc9, 0xdb, 0xbe, 0xa5, 0xb5, 0xf9, 0x3e,
  0x24, 0xe3, 0xff, 0x3e, 0x2a, 0x07, 0x96, 0x3e, 0x4c, 0xe5, 0x3b, 0x3e,
  0xe9, 0x55, 0x1d, 0xbc, 0x4d, 0xd4, 0xb6, 0xbe, 0x42, 0x70, 0x65, 0xbe,
  0xa0, 0x26, 0x7a, 0xbf, 0x2e, 0xd3, 0xa9, 0xbe, 0x18, 0x51, 0x44, 0x3f,
  0x05, 0x62, 0x8e, 0xbd, 0xd6, 0x73, 0xb3, 0x3e, 0x40, 0x51, 0x3c, 0xbc,
  0xc8, 0x4d, 0x92, 0x3d, 0xbf, 0xf3, 0x0e, 0xbe, 0x27, 0x90, 0xf2, 0xbd,
  0xe8, 0x88, 0xeb, 0x3e, 0x71, 0x54, 0xa0, 0x3f, 0xf4, 0xab, 0x75, 0x3e,
  0x3d, 0x5e, 0x51, 0x3f, 0x4a, 0x03, 0x61, 0x3e, 0x15, 0xb8, 0x8a, 0x3e,
  0xf0, 0x27, 0xf9, 0x3d, 0x08, 0xad, 0xbf, 0xbe, 0xb2, 0xfe, 0xff, 0xff,
  0x04, 0x00, 0x00, 0x00, 0x40, 0x01, 0x00, 0x00, 0x8a, 0x1b, 0xab, 0xbf,
  0x68, 0x47, 0x84, 0x3e, 0xcd, 0xf8, 0xde, 0x3e, 0x3d, 0x8e, 0xe2, 0xbe,
  0xc2, 0xdc, 0xee, 0x3e, 0x37, 0xef, 0x42, 0x3f, 0x6d, 0x21, 0xad, 0x3d,
  0xa4, 0xc8, 0x0a, 0xbf, 0x1a, 0x20, 0x71, 0x3f, 0x7e, 0x89, 0x18, 0x3f,
  0x84, 0xc1, 0x91, 0xbe, 0xf8, 0x70, 0x61, 0x3e, 0x78, 0x9a, 0xae, 0x3e,
  0xae, 0x1b, 0x68, 0xbe, 0x09, 0xfa, 0x9d, 0x3f, 0x80, 0xae, 0xdb, 0xbd,
  0xe3, 0x90, 0xf6, 0x3e, 0xd1, 0x28, 0x86, 0xbd, 0x4e, 0x09, 0xb3, 0x3e,
  0xb7, 0x6a, 0x17, 0x3f, 0xd5, 0x6f, 0x95, 0x3e, 0xd5, 0x51, 0xea, 0x3d,
  0x2c, 0xc6, 0x6c, 0x3d, 0x41, 0x8e, 0xa7, 0x3e, 0xd1, 0xa4, 0xad, 0x3e,
  0x00, 0x25, 0x7b, 0xbd, 0x14, 0xe5, 0x01, 0x3e, 0xbe, 0xa1, 0x6f, 0x3e,
  0xe7, 0x5c, 0x87, 0xbe, 0xc7, 0x9e, 0x92, 0x3e, 0x99, 0xb9, 0xd2, 0xbe,
  0x08, 0x6a, 0x31, 0x3d, 0xeb, 0xe9, 0xaf, 0x3e, 0x5a, 0x05, 0xb7, 0x3e,
  0x6b, 0x25, 0x78, 0x3e, 0xe0, 0x1e, 0xba, 0xbe, 0xfd, 0xd6, 0xbf, 0x3e,
  0x7a, 0xd9, 0x24, 0x3f, 0xea, 0x05, 0x38, 0xbf, 0x08, 0x77, 0x17, 0xbe,
  0x4a, 0x67, 0xff, 0x3e, 0x62, 0xf2, 0x99, 0x3e, 0x71, 0xb8, 0xd4, 0x3e,
  0x6f, 0x51, 0x3c, 0x3e, 0x89, 0x0c, 0x63, 0x3e, 0x08, 0xec, 0xe2, 0xbe,
  0x4b, 0x6c, 0xb6, 0x3d, 0xd9, 0x77, 0x23, 0xbf, 0xb0, 0x19, 0xdd, 0x3d,
  0xe0, 0xfa, 0xe8, 0x3d, 0xa0, 0x9b, 0x9a, 0xbc, 0x2c, 0x47, 0xaf, 0x3e,
  0x72, 0x23, 0x3b, 0xbe, 0x00, 0x12, 0x2b, 0xbe, 0xc0, 0xcd, 0x6e, 0xbd,
  0x90, 0x3b, 0x4f, 0xbd, 0x21, 0xd9, 0x8e, 0x3e, 0xa8, 0x60, 0x2d, 0x3f,
  0x0e, 0x12, 0xf1, 0xbe, 0xad, 0xfa, 0x3a, 0xbe, 0xc9, 0x6d, 0xc5, 0x3c,
  0x9f, 0xd7, 0x99, 0xbb, 0x4a, 0xa2, 0x58, 0xbf, 0x98, 0x49, 0x80, 0x3f,
  0x82, 0xaf, 0xc1, 0xbf, 0x4d, 0x15, 0x0e, 0xbf, 0x8c, 0xca, 0x17, 0x3f,
  0xbd, 0x58, 0xdb, 0x3e, 0xda, 0x4f, 0x82, 0x3f, 0x36, 0x87, 0x00, 0xbe,
  0xbe, 0x5f, 0x27, 0x3f, 0x37, 0xbf, 0x17, 0x3f, 0xa9, 0x19, 0x11, 0x3d,
  0xd4, 0xc2, 0x6c, 0x3e, 0xc9, 0xde, 0x01, 0x3f, 0xc5, 0x02, 0xad, 0xbe,
  0x83, 0xd5, 0x48, 0x3b, 0x34, 0xbd, 0x52, 0x3e, 0x1e, 0x51, 0x91, 0x3e,
  0x51, 0x34, 0x33, 0xbe, 0x00, 0x00, 0x06, 0x00, 0x08, 0x00, 0x04, 0x00,
  0x06, 0x00, 0x00, 0x00, 0x04, 0x00, 0x00, 0x00, 0xf0, 0x00, 0x00, 0x00,
  0xf8, 0x8c, 0xb0, 0x3d, 0x50, 0x95, 0x0a, 0x3e, 0xfd, 0x6c, 0xdb, 0x3e,
  0x7b, 0xe9, 0xd2, 0x3e, 0x9f, 0xdc, 0x08, 0x3e, 0x3e, 0x67, 0x7e, 0x3e,
  0x9e, 0xf7, 0x8f, 0x3e, 0x4f, 0x66, 0x6d, 0xbe, 0x5d, 0x77, 0x12, 0xbe,
  0xd7, 0xc2, 0x02, 0xbf, 0x35, 0x16, 0xf8, 0x3c, 0xd6, 0xd6, 0xa9, 0x3d,
  0x05, 0x71, 0x07, 0xbf, 0x39, 0xf8, 0x80, 0xbe, 0xae, 0x04, 0x54, 0xbd,
  0x8d, 0xb3, 0xd9, 0x3c, 0xe8, 0xbb, 0x8b, 0x3e, 0x29, 0x8c, 0x7f, 0x3e,
  0x8e, 0xf0, 0xbe, 0x3d, 0x66, 0x11, 0x56, 0x3e, 0x07, 0xc0, 0x6e, 0x3d,
  0x1a, 0x19, 0x3f, 0x3e, 0xc6, 0xc1, 0x0c, 0xbf, 0x69, 0x79, 0xe6, 0xbe,
  0x47, 0x01, 0x7e, 0x3d, 0xa4, 0x18, 0xe2, 0xbd, 0x1a, 0x6d, 0xca, 0xbe,
  0x71, 0x0b, 0x25, 0x3e, 0x86, 0x33, 0x8b, 0x3d, 0xe0, 0xd3, 0xd6, 0xbe,
  0x53, 0x1c, 0x8d, 0x3f, 0x01, 0xe2, 0x2d, 0xbf, 0x33, 0xf5, 0xb8, 0xbe,
  0x5f, 0x3c, 0xcc, 0x3e, 0x1c, 0x4c, 0x22, 0x3f, 0xa5, 0xf9, 0xaf, 0x3d,
  0x58, 0x56, 0xd7, 0xbe, 0x96, 0xbf, 0xae, 0xbe, 0xbd, 0xe7, 0xf8, 0x3d,
  0xff, 0x43, 0xa2, 0x3e, 0x66, 0xff, 0x0e, 0xbf, 0x95, 0xda, 0x7b, 0xbf,
  0x18, 0x47, 0x03, 0x3f, 0x40, 0x19, 0xb0, 0x3e, 0x49, 0x7b, 0x06, 0xbe,
  0x72, 0xcb, 0xc6, 0x3e, 0xfc, 0xfb, 0x0a, 0xbe, 0x21, 0xd2, 0x70, 0x3f,
  0x76, 0x66, 0x2c, 0x3f, 0x6e, 0x6b, 0x1b, 0xbf, 0xad, 0x0b, 0xd6, 0xbd,
  0x9b, 0xd2, 0xa7, 0x3e, 0x15, 0x40, 0x05, 0x3e, 0x43, 0x46, 0x91, 0x3e,
  0x68, 0x05, 0x74, 0xbf, 0x66, 0x58, 0x22, 0xbf, 0x58, 0x2b, 0xb7, 0x3d,
  0x52, 0x0f, 0x52, 0xbf, 0x39, 0xf4, 0x88, 0x3f, 0x1e, 0x73, 0xf5, 0xbd,
  0x20, 0xf7, 0xff, 0xff, 0x24, 0xf7, 0xff, 0xff, 0x0f, 0x00, 0x00, 0x00,
  0x4d, 0x4c, 0x49, 0x52, 0x20, 0x43, 0x6f, 0x6e, 0x76, 0x65, 0x72, 0x74,
  0x65, 0x64, 0x2e, 0x00, 0x01, 0x00, 0x00, 0x00, 0x14, 0x00, 0x00, 0x00,
  0x00, 0x00, 0x0e, 0x00, 0x18, 0x00, 0x14, 0x00, 0x10, 0x00, 0x0c, 0x00,
  0x08, 0x00, 0x04, 0x00, 0x0e, 0x00, 0x00, 0x00, 0x14, 0x00, 0x00, 0x00,
  0x1c, 0x00, 0x00, 0x00, 0x54, 0x01, 0x00, 0x00, 0x58, 0x01, 0x00, 0x00,
  0x5c, 0x01, 0x00, 0x00, 0x04, 0x00, 0x00, 0x00, 0x6d, 0x61, 0x69, 0x6e,
  0x00, 0x00, 0x00, 0x00, 0x05, 0x00, 0x00, 0x00, 0xf8, 0x00, 0x00, 0x00,
  0xb0, 0x00, 0x00, 0x00, 0x78, 0x00, 0x00, 0x00, 0x34, 0x00, 0x00, 0x00,
  0x10, 0x00, 0x00, 0x00, 0x00, 0x00, 0x0a, 0x00, 0x10, 0x00, 0x0c, 0x00,
  0x08, 0x00, 0x04, 0x00, 0x0a, 0x00, 0x00, 0x00, 0x0c, 0x00, 0x00, 0x00,
  0x10, 0x00, 0x00, 0x00, 0x01, 0x00, 0x00, 0x00, 0x01, 0x00, 0x00, 0x00,
  0x0d, 0x00, 0x00, 0x00, 0x01, 0x00, 0x00, 0x00, 0x0c, 0x00, 0x00, 0x00,
  0x56, 0xff, 0xff, 0xff, 0x1c, 0x00, 0x00, 0x00, 0x00, 0x00, 0x00, 0x08,
  0x1c, 0x00, 0x00, 0x00, 0x20, 0x00, 0x00, 0x00, 0x00, 0x00, 0x0a, 0x00,
  0x08, 0x00, 0x00, 0x00, 0x00, 0x00, 0x07, 0x00, 0x0a, 0x00, 0x00, 0x00,
  0x00, 0x00, 0x00, 0x01, 0x01, 0x00, 0x00, 0x00, 0x0c, 0x00, 0x00, 0x00,
  0x03, 0x00, 0x00, 0x00, 0x0b, 0x00, 0x00, 0x00, 0x01, 0x00, 0x00, 0x00,
  0x07, 0x00, 0x00, 0x00, 0x96, 0xff, 0xff, 0xff, 0x10, 0x00, 0x00, 0x00,
  0x00, 0x00, 0x00, 0x08, 0x10, 0x00, 0x00, 0x00, 0x14, 0x00, 0x00, 0x00,
  0x86, 0xff, 0xff, 0xff, 0x00, 0x00, 0x01, 0x01, 0x01, 0x00, 0x00, 0x00,
  0x0b, 0x00, 0x00, 0x00, 0x03, 0x00, 0x00, 0x00, 0x0a, 0x00, 0x00, 0x00,
  0x02, 0x00, 0x00, 0x00, 0x06, 0x00, 0x00, 0x00, 0xca, 0xff, 0xff, 0xff,
  0x10, 0x00, 0x00, 0x00, 0x00, 0x00, 0x00, 0x08, 0x10, 0x00, 0x00, 0x00,
  0x14, 0x00, 0x00, 0x00, 0xba, 0xff, 0xff, 0xff, 0x00, 0x00, 0x01, 0x01,
  0x01, 0x00, 0x00, 0x00, 0x0a, 0x00, 0x00, 0x00, 0x03, 0x00, 0x00, 0x00,
  0x09, 0x00, 0x00, 0x00, 0x03, 0x00, 0x00, 0x00, 0x05, 0x00, 0x00, 0x00,
  0x00, 0x00, 0x0e, 0x00, 0x16, 0x00, 0x00, 0x00, 0x10, 0x00, 0x0c, 0x00,
  0x0b, 0x00, 0x04, 0x00, 0x0e, 0x00, 0x00, 0x00, 0x1c, 0x00, 0x00, 0x00,
  0x00, 0x00, 0x00, 0x08, 0x1c, 0x00, 0x00, 0x00, 0x20, 0x00, 0x00, 0x00,
  0x00, 0x00, 0x0a, 0x00, 0x08, 0x00, 0x07, 0x00, 0x00, 0x00, 0x06, 0x00,
  0x0a, 0x00, 0x00, 0x00, 0x00, 0x00, 0x01, 0x01, 0x01, 0x00, 0x00, 0x00,
  0x09, 0x00, 0x00, 0x00, 0x03, 0x00, 0x00, 0x00, 0x00, 0x00, 0x00, 0x00,
  0x08, 0x00, 0x00, 0x00, 0x04, 0x00, 0x00, 0x00, 0x01, 0x00, 0x00, 0x00,
  0x0d, 0x00, 0x00, 0x00, 0x01, 0x00, 0x00, 0x00, 0x00, 0x00, 0x00, 0x00,
  0x0e, 0x00, 0x00, 0x00, 0x0c, 0x07, 0x00, 0x00, 0xb4, 0x06, 0x00, 0x00,
  0x5c, 0x06, 0x00, 0x00, 0x1c, 0x06, 0x00, 0x00, 0xa8, 0x05, 0x00, 0x00,
  0x34, 0x05, 0x00, 0x00, 0xc0, 0x04, 0x00, 0x00, 0x4c, 0x04, 0x00, 0x00,
  0xe4, 0x03, 0x00, 0x00, 0xf8, 0x02, 0x00, 0x00, 0x0c, 0x02, 0x00, 0x00,
  0x20, 0x01, 0x00, 0x00, 0x68, 0x00, 0x00, 0x00, 0x04, 0x00, 0x00, 0x00,
  0x42, 0xf9, 0xff, 0xff, 0x00, 0x00, 0x00, 0x01, 0x14, 0x00, 0x00, 0x00,
  0x20, 0x00, 0x00, 0x00, 0x20, 0x00, 0x00, 0x00, 0x0e, 0x00, 0x00, 0x00,
  0x38, 0x00, 0x00, 0x00, 0x03, 0x00, 0x00, 0x00, 0xff, 0xff, 0xff, 0xff,
  0x2c, 0x01, 0x00, 0x00, 0x06, 0x00, 0x00, 0x00, 0x2c, 0xf9, 0xff, 0xff,
  0x1b, 0x00, 0x00, 0x00, 0x53, 0x74, 0x61, 0x74, 0x65, 0x66, 0x75, 0x6c,
  0x50, 0x61, 0x72, 0x74, 0x69, 0x74, 0x69, 0x6f, 0x6e, 0x65, 0x64, 0x43,
  0x61, 0x6c, 0x6c, 0x5f, 0x31, 0x3a, 0x30, 0x00, 0x03, 0x00, 0x00, 0x00,
  0x01, 0x00, 0x00, 0x00, 0x2c, 0x01, 0x00, 0x00, 0x06, 0x00, 0x00, 0x00,
  0xa2, 0xf9, 0xff, 0xff, 0x00, 0x00, 0x00, 0x01, 0x14, 0x00, 0x00, 0x00,
  0x20, 0x00, 0x00, 0x00, 0x20, 0x00, 0x00, 0x00, 0x0d, 0x00, 0x00, 0x00,
  0x8c, 0x00, 0x00, 0x00, 0x03, 0x00, 0x00, 0x00, 0xff, 0xff, 0xff, 0xff,
  0x2c, 0x01, 0x00, 0x00, 0x06, 0x00, 0x00, 0x00, 0x8c, 0xf9, 0xff, 0xff,
  0x6c, 0x00, 0x00, 0x00, 0x61, 0x6e, 0x6f, 0x6d, 0x61, 0x6c, 0x79, 0x5f,
  0x64, 0x65, 0x74, 0x65, 0x63, 0x74, 0x6f, 0x72, 0x5f, 0x33, 0x5f, 0x31,
  0x2f, 0x73, 0x65, 0x71, 0x75, 0x65, 0x6e, 0x74, 0x69, 0x61, 0x6c, 0x5f,
  0x37, 0x5f, 0x31, 0x2f, 0x64, 0x65, 0x6e, 0x73, 0x65, 0x5f, 0x31, 0x35,
  0x5f, 0x31, 0x2f, 0x4d, 0x61, 0x74, 0x4d, 0x75, 0x6c, 0x3b, 0x61, 0x6e,
  0x6f, 0x6d, 0x61, 0x6c, 0x79, 0x5f, 0x64, 0x65, 0x74, 0x65, 0x63, 0x74,
  0x6f, 0x72, 0x5f, 0x33, 0x5f, 0x31, 0x2f, 0x73, 0x65, 0x71, 0x75, 0x65,
  0x6e, 0x74, 0x69, 0x61, 0x6c, 0x5f, 0x37, 0x5f, 0x31, 0x2f, 0x64, 0x65,
  0x6e, 0x73, 0x65, 0x5f, 0x31, 0x35, 0x5f, 0x31, 0x2f, 0x42, 0x69, 0x61,
  0x73, 0x41, 0x64, 0x64, 0x00, 0x00, 0x00, 0x00, 0x03, 0x00, 0x00, 0x00,
  0x01, 0x00, 0x00, 0x00, 0x2c, 0x01, 0x00, 0x00, 0x06, 0x00, 0x00, 0x00,
  0x56, 0xfa, 0xff, 0xff, 0x00, 0x00, 0x00, 0x01, 0x14, 0x00, 0x00, 0x00,
  0x20, 0x00, 0x00, 0x00, 0x20, 0x00, 0x00, 0x00, 0x0c, 0x00, 0x00, 0x00,
  0xc0, 0x00, 0x00, 0x00, 0x03, 0x00, 0x00, 0x00, 0xff, 0xff, 0xff, 0xff,
  0x2c, 0x01, 0x00, 0x00, 0x0a, 0x00, 0x00, 0x00, 0x40, 0xfa, 0xff, 0xff,
  0xa0, 0x00, 0x00, 0x00, 0x61, 0x6e, 0x6f, 0x6d, 0x61, 0x6c, 0x79, 0x5f,
  0x64, 0x65, 0x74, 0x65, 0x63, 0x74, 0x6f, 0x72, 0x5f, 0x33, 0x5f, 0x31,
  0x2f, 0x73, 0x65, 0x71, 0x75, 0x65, 0x6e, 0x74, 0x69, 0x61, 0x6c, 0x5f,
  0x37, 0x5f, 0x31, 0x2f, 0x64, 0x65, 0x6e, 0x73, 0x65, 0x5f, 0x31, 0x34,
  0x5f, 0x31, 0x2f, 0x4d, 0x61, 0x74, 0x4d, 0x75, 0x6c, 0x3b, 0x61, 0x6e,
  0x6f, 0x6d, 0x61, 0x6c, 0x79, 0x5f, 0x64, 0x65, 0x74, 0x65, 0x63, 0x74,
  0x6f, 0x72, 0x5f, 0x33, 0x5f, 0x31, 0x2f, 0x73, 0x65, 0x71, 0x75, 0x65,
  0x6e, 0x74, 0x69, 0x61, 0x6c, 0x5f, 0x37, 0x5f, 0x31, 0x2f, 0x64, 0x65,
  0x6e, 0x73, 0x65, 0x5f, 0x31, 0x34, 0x5f, 0x31, 0x2f, 0x52, 0x65, 0x6c,
  0x75, 0x3b, 0x61, 0x6e, 0x6f, 0x6d, 0x61, 0x6c, 0x79, 0x5f, 0x64, 0x65,
  0x74, 0x65, 0x63, 0x74, 0x6f, 0x72, 0x5f, 0x33, 0x5f, 0x31, 0x2f, 0x73,
  0x65, 0x71, 0x75, 0x65, 0x6e, 0x74, 0x69, 0x61, 0x6c, 0x5f, 0x37, 0x5f,
  0x31, 0x2f, 0x64, 0x65, 0x6e, 0x73, 0x65, 0x5f, 0x31, 0x34, 0x5f, 0x31,
  0x2f, 0x42, 0x69, 0x61, 0x73, 0x41, 0x64, 0x64, 0x00, 0x00, 0x00, 0x00,
  0x03, 0x00, 0x00, 0x00, 0x01, 0x00, 0x00, 0x00, 0x2c, 0x01, 0x00, 0x00,
  0x0a, 0x00, 0x00, 0x00, 0x3e, 0xfb, 0xff, 0xff, 0x00, 0x00, 0x00, 0x01,
  0x14, 0x00, 0x00, 0x00, 0x20, 0x00, 0x00, 0x00, 0x20, 0x00, 0x00, 0x00,
  0x0b, 0x00, 0x00, 0x00, 0xc0, 0x00, 0x00, 0x00, 0x03, 0x00, 0x00, 0x00,
  0xff, 0xff, 0xff, 0xff, 0x2c, 0x01, 0x00, 0x00, 0x08, 0x00, 0x00, 0x00,
  0x28, 0xfb, 0xff, 0xff, 0xa0, 0x00, 0x00, 0x00, 0x61, 0x6e, 0x6f, 0x6d,
  0x61, 0x6c, 0x79, 0x5f, 0x64, 0x65, 0x74, 0x65, 0x63, 0x74, 0x6f, 0x72,
  0x5f, 0x33, 0x5f, 0x31, 0x2f, 0x73, 0x65, 0x71, 0x75, 0x65, 0x6e, 0x74,
  0x69, 0x61, 0x6c, 0x5f, 0x36, 0x5f, 0x31, 0x2f, 0x64, 0x65, 0x6e, 0x73,
  0x65, 0x5f, 0x31, 0x33, 0x5f, 0x31, 0x2f, 0x4d, 0x61, 0x74, 0x4d, 0x75,
  0x6c, 0x3b, 0x61, 0x6e, 0x6f, 0x6d, 0x61, 0x6c, 0x79, 0x5f, 0x64, 0x65,
  0x74, 0x65, 0x63, 0x74, 0x6f, 0x72, 0x5f, 0x33, 0x5f, 0x31, 0x2f, 0x73,
  0x65, 0x71, 0x75, 0x65, 0x6e, 0x74, 0x69, 0x61, 0x6c, 0x5f, 0x36, 0x5f,
  0x31, 0x2f, 0x64, 0x65, 0x6e, 0x73, 0x65, 0x5f, 0x31, 0x33, 0x5f, 0x31,
